module  {
  flow.variable @"__iree_flow___sm_node19__model.layer-2.kernel" dense<"0x797721BD1A80BCBD4A403E3A8E24DBBC7B1487BD294947BDA2DF8BBD2B27D43C079E493B5725883D56423DBDFB5468BC7BA69DBCDC194DBD257926BCCB24403D08F12CBD248FEF3AF65C55BDBCB0DF3BDB207CBDDEAD1A3D808A813C1F0D9BBDA665C0BD62E9F73B972DA83C92E0FD3C36707C3C93A6153D4CBE36BCF645823C0BE481BD48A4C23D5505363DD8FB5CBC898D363D7EFDA0BDCBCF263D4FF6903DDE1A283D75B2A23D1CB8D93D3312953D1053BBBBEA804CBDEFFCB5BDC9F26C3DBAD59D3CADA23BBC9E1BA4BC465E83BD1598063CC06CCDBC3CD849BC12C7143C47FD523A57FD4FBDAFB3A13B1ABF163D3654D13C46DB7C3D3BC6A43D23CE1CBD7EDC263CD0275E3D725B813DD4801DBB1DC98CBD6B444BBDDF16BABDF77FE8BD2224AABDBACD743C6768F13CC4C4423CF259DBBC4EF777BD8927913DD855B23C5106DCBBB154263C6AE332BD1D883DBC8446D7BD4F8ACE3A9E0F353D88BF6D3D3E82EBBB4F2FE13C6FBB60BDB8F55F3B38B236BD06C47C3CF878AD3DFE79C3BDDC321F3C75EC17BD314D103D3EBF38BCD70372BDCCF9C33B2D14B3BBB880F7BC4D9B3AB916519CBDDF9903BCD62BCD3DAFF9B6BCC78AA93C2ACC413B8FD07FBB2AB4063D1355F239A4A89B3DC73DCE3C03E45A3D0812013DAE76923C844EBDBC71C794BCEFBE0A3D2A17B9BDA7C0743D747990BA28A4823CBB39173C53BFBABC119628BCC2749DBB98BD233D93E75EBC0C80C03D78265A3DA1CE3C3D0B0D883CF86E8EBD0844773ADE5B81BC3801F7BBF8EA8FBCD657B03D6E81D23D350AEABBE1FA38BDDADC46BD87F14DBDF4F3E43BD3BB8C3C37E402BDA5FA4BBD500926BD12B605BDFED0CCBDD80B673DFADEB5BA68BBAF3B7393893D64FD43BC209BABBD0A6078BDE3F2033D24C57E3D1285273DA7C1003D61026A3D0CD49EBC41C7FC3C1698E3BD432685BCD2EC83BDF02CE83ADFFD873BA796303D69C55A3D2BFD8A3D7AE4323DB8C92D3DA734EBBA34BD9EBC334F3D3D3193683C016F1BBDF80E6D3D4796AA3CFE41433D3BCDC63B9A66BA3BE7F14C3D79413EBDEEEBADBD29738FBD9C6184BDC0B0743DB336A6BD845B693DC0B0AE3C49183A3DD24863BD5BFB90BC90F6C73C51CB8A3D6803C53C1E8436BD2BCE973C09CA0F3CFC1E733B581CE1BC5952B4BC642586BC1035AFBD9A1EA6BD9DFE91BDB4F5493D9AC34A3D1CA3963D546C263D2122A23C0AF1A1BBCB93853B9FED11BD4547043D74DC2ABDEB62FEBC2D77203D19E6553CB8CF57BD5014073B22CB9D3D362E5DBCE65DB73DF9A6D73D18E50D3D91EE0E3C55A8CABD87419D3C8605703D4BC5A6BD7626323D8DA85C3DE5227B3DB023B2BDF371103D43CA67BDDAF3BDBC8C85843DF03D353D5392153DB72B7F3C3F8EAF3D4F4D553D8B948ABD5F81813D2090E63B7827943CF3E1C0BDB67CD9BC6F6E0FBD9017283B5675B43C0E3C0ABC1B5CCEBD04F91DBDBCA03A3DFD86133D050E80BDE3194B3DDA75E13C2BEAB9BD2543B43DDF39AF3DD0C784BD3FE77FBD46695A3C40A0523DC98DDEBD204BFE3B1240613D8D2EB73B1DEFACBD6D04BA3C69C470BD3FE1CA3D1272533D1DB6E33C2C2935BDF57289BD79F928BD4518F9BCCACD163B7B660EBDEBBDBD3DE33C393C9581EC3C6FDC73BDF3AE8ABC279B17BB20A44F3C6FA5203BEA058CBCCAD0D83D5E4C073B11E7C63D1915DABCE8D89C3D44F380BD8EAC943CC6F1893C51E493BD92E264BDB1B6B03B6CBEC5BC131CF3BC8289BE3BC15127BD49D3D4BDBA03CCBC640CC43BA1B551BB694DEEBCFA986DBC6BD8A83C816730BD2722A0BC313D9C3A9CEEA6BD4263653CED9BBB3D37DC59BD1ADFE8BC213EA03CC99315BD399381BDCAFE933CB443EEBC5FE08C3DE96DC33C1D2BA7BB0A49C83D71EF69BDB01A6C3DEDE0D13DB7C087BD640E843D26281E3D807FA7BD23DCBB3D219C3D3DDED1BA3C7B67783CA9A65F3D41A400BC04873EBCA906F9BC92642BBD413D1CBC52DD333B4840B6BDA6E4C03C33BC8E3D212395BB821F7CBD2BD9BC3C616716BC4EF25DBD5098CE3D76D9B83BDFB58B3CD6A3663DEC478DBDAF5651BD69C3163DF4EDD8BCD41DCABD99D4D9BB0034C5BD84AD223CD0201D3DE2CA72BD239F8BBC1655BFBD3165933BF6A6D03ACF6341BDABB840BD67B32D3D685F593DBC2826BD9B8F983D2DC2D93D779B75BD1A5C003CA7A607BDCC34BBBDDC27A3BD464925BD1C71C0BCC1507DBD2DEDB83D11B00B3C7E1FE5BBB1D5A63B97DECEBCB8AC0C3D52D6B5B98BAD8F3B21A5023C560CA43B368169BD5B1C1A3C863AEFBAA21A853D9E1BF2BCF3C2273D0E7507BD03E1653D79A502BD6D1B44BD7C58FABBB50FF4BB2E67483DD773A03D14861DBDE8CF663A4E2568BC830442BC4BDCF23C9390783D99A3CABD297A563D8380C13DDD6A75BD7763C8BC3153ADBCB052B83C1290283C3A4186BD2701D9BCFA6694BCB8375BBDAD33BF3CBF630E3C9BA0BB3DAA02EA3C8241A33D53303A3D7709C5BC3CC3E03CAB2EE7BD08B259BD40C1A2BADA9B5FBCA11FBA3C8EFD943DADBDB73D9C163BBCBAA5E93DAF9CD33DEB069EBC439C90BC2300B23D1CA1AA3D0BB188BD22A908BCD19384BD99471A3C03F5C23D600288BC07A3AC3C3D1615BDB5B8B83DD42C0ABCD6D74B3DFA8FDCBD143E6BBD7D3481BDEA4F48BDC1AAFC3CBD516E3DCC34BC3DB35A0FBDD6201DBDBC5934BDABCC4FBD22907FBC74D7283D6AEF51BB6CF887BD42294CBA2E01A93D56DE43BDF4F7A03BDF14CE3DE0C17C3CC4693DBD858DC7BB7D4D27BC04DCCF3C86B27EBBF5AE16BCFFA7ECBC4E2BD1BB8A0C6DBD8885D2BC9DA51D3CDF9642BDDBFD953D4EDE89BD1E6998BC0A202FBD8CCD483BF2E4DE3C6C8C00BCEC64FCBCEDCFA5BB6DED44BD4E29003D09E17CBD4C41163CB08939BDEE78693C6C04CDBA92F6B83C59F035BDD001503C46E2F73C58A3933D11D35E3D0BF2C1BBABFDBC3CEDA4A5BD13CF09BDD2A6073DFDF084BC5388F53C6859B73CEBAF3D3DAF8CAD3D3B0A913DEA5291BC390B903D589D5DBD775C60BD2051A03CB4201FBDF09EBCBBBE398B3C412D843D0E3B06BDF56584BD5C16833D10D7C6BC82DC97BD7C8F243D78CC7A3D96F635BD4A27693D538391BDCB49CF3C67723BBD1E57B4BC925DBE3C41D5F93C820EC4BC77F0793DAC20A0BC2935293D8F53B33C8CF597BBF88BA3BDE60476BCF90FC5BD037E6ABD36CA283D7C66B5BDFD7D1E3D7550073D81027FBD31D5283DC236873D4E66BABC84AAD03BBA0E583C7C560FBCADD2ED3C82217E3DDE98403D6BBF43BD3FA7B03A13979E3DD086BFBBF34455BDE625063CFA14DFBC06E7873D7BF9C6BCEF7CAE3DC1BBEA3BB7769A3C9E8A55BCAA61723C658742BD3F0D46BD0D06DB3C1519B13D78D789BDAA38F03C531F78BD9DF95C3C82B7683C4BFAF73B11060F3D045AB43D6225603D5433EE3CC9D867BC96F23C3DE13BC0BBA48F8E3D3ED71BBD6EA6D5BCA3D0C2BC8684113CF55388BCBB0E9CBD0C5362BDD13C76BD04C7983DC302F33C4B7E2A3D43848CBC5C0E98BD202A303DE45C3BBD50AF5DBC405C933CF7B8B23DC33BD0BDD094CE3C4098123DE2A9DBBD706DB8BB02825A3D2C4A39BC241B4E3DD0665DBD187EC83C311B24BD5356663DBF4E113C4183E53B3BAFD5BC7F9DA8BC3E9FE3BC4E96C33DB2B4C53C1A2B4DBD7AA855BDE20EA4BC246B833B23172B3B832CA3BCC46865BDA19B8E3D5A362B3D739665BD8976DA3C194010BDA3F454BD12773D3D2521283DE29144BD282365BD05E480BD220E2C3D5AF746BAD34075BD02D58F3CACDBD23D91AE03BD55ED69BDD69E41BDEDE7BDBD6D48323D64B8A0BD77E59BBCBB3F5BBC522CA83DAFCC6FBC1E466DBDEC26D0BC5381BBBD8442ED3C62446E3D640E873C3B6DB0BD739444BC8F27213D60BF82BD057F85BC2E93BA3C2D546ABCFECC9C3D533A433CA2EDD4BC27483A3D4CC9833D5BD2DDBBB736793D6E50803C52B0E13CF5A72B3D529182BD813176BDBBEA363DA781843D25CB5C3D18E310BDBD628C3C0CD0713D05A049BDEB61673CE35E093C2C13463D5FBDEDBCEA0661BC05D7CC3CA247AA3DE22301BDF56EC93B91128D3D91F2A43D15809CBB8DF75DBB83CECB386F7A86BDE3AEEE3AF8F828BCDA17E8BC5EB2B83C0B35033C8E39BBBDCC214BBDEC49FABB42792CBC32C4003D1D4B383DB9EDABBC1FE5FD3C71FADF3DEA23BEBD523FD73C62C9DA3CF50717BD67C2C23DD8EECBBB4234C5BC40EB5A3BB893A7BD9D43EC3C0E9CFABC3B9A65BD55DCFE3BFF21103CB457BF3CEBD912BD0F1F433B96EC91BB41DFB13B31EF5EBDC10B383DF37893BD42BE193D111EDABCBC11B03BAE5692BD6BF27ABD647526BD591A2A3B3947C2BC17E9963DF9A7C13CDE02D3BC45C2633C63F1ADBC56EE7DBDFBFAC5BC5F2355BB68B773380758593DF065EE3AB980AC3D91ADE53D37D80D3D9A3457BD15F9773DB7BE32BCF179073D4084963D38758A3D8AD7883D18541FBD840D77397213E63D737C2A3D1FA5D43D6632C03C4F5A22BDF296ED3CE9B65C3CB92CB03CD9CDC93DDBA5793DE6988BBC339F9B3BFF393B3DB63E3BBC811F21BC8132DB3D962FBABCD370373D708C823D8738A53DDD140FBCDA4B773D358D35BD38281B3C21BB84BD434DE6BD7B434ABD54F3073D8E8185BCA0C19C376AC4223B05E938BD85216DBD1A80023D9511CB3CE84E01BD2E31C8BCC1C5233D0D8978BC1CCBA3BCC531953D18C2813D6DB51E3DBE41A63CDC5AC13D535752BD7CBDE7BD2B88BB3B1B958A3CE1C01739C0B492BC980A91BD574C3FBD8403E1BC4FB661BD552FA53D0E8A2E3CF9C46F3D80D1013DE9F6113C7988DABD958EC63D125CB8BD80B86DBC032E0E3C69F1E0BC081DAB3C388AACBDEEFEADBD72FF9DBDF8040B3D8433633D88337EBC025A92BD3E07B93DA318D8BC92EC273D9941A0BC5D9E9D3B1B1D603D9285B83D17C895BC6679FBBC1118CEBD9F211ABD920831BB8D6325BD970A90BC5991743DD53487BD6182B23C504A4D3D13D0A23C1CBB10BA941AA5BB62E9833B388AB63CE0AAD5BAC3CFA6BC0E7BF1BC2BAA20BD26D08BBDD50A023DC183863BDD7B55BDBB838DBD4C01243D9B775DBC3F30C33C5A11933D9BE1C8BC033FB8BD729D81BD77A6973DBB29A6BD67DABDBAD0DAE43BA30AD13C138CDDBDE40F6ABD319572BC9DCC3DBDEACDE3BD7916BA3D729FC6BDFD010F3D7E4B883CA482ADBDA8CB2B3C5AD0483DD5AEE8BC6EB97EBCFFACC93CD62302BCF24DA0BA3E89A23CDDD4A43DF920873C8B467F3C6F0F45BD831D43BDA4164DBD5EAB2EBDA6A117BC4406893D5525C1BD5F07B63CBDD445BDD2C808BDD873013DC405D23DE33E733D74C79DBDB9918C3C1ECC6ABDFE0538BDB9A77C3CFDC0F6BCFB1FF43BDB4439BD459D87BD0D3A18BC24283BBD4FEAB2BCD240253CA9186EBD6001CF3D4586A93D019AD33D6898143B4E3BE2BDFE0D973D2CEE44BC7991C93C0784283D5CF600BDECD4ECBC6C1637BD8A243DBC3F12813D25B3C73CE11FB73D543FB33C9EC89ABDFF1D8D3B7CF69C3C89F77C3D1CDA86BD01CEECBBC3D70DBDA108183DF63013BD10B39CBD859AA3BD12B38C3CE18C0EBD4FC7713D657C963C44FADDBD4BE70CBDABAE863CB1EB893C6CF39C3D46317BBD51746F3D8EB382BC7B6E783C0D1D4BBC9E0E983DA6D7003DF3BB67BCFAC7B93DEB5BD43D117CAFBC7F0B523DD2C2B43D40A971BDFC56AAB916626E3B643D0E3D653092BD8153EDBC40087B3D1A3A4F3D6F174C3D8233EEBC79FF923CCE5AB7BDC0FC81BDA12C7CBC7D4D38BDB92E6A3B7DF0ABBC480B903DC88E79BDB87FC8BDA3DD553D6E3C973D7A78F53CDE6F963D85618C3D0D802B3DE545363D64A2B0BC356B333D58C737BD2E1D4E3D5A8DC7BCFFD1A3BD5B29B43CC2D2973B6F61233BA7FD113C50FA653D6491BA3DB9EA5C3D64E698BC03DABF3C7145743D408218BD7CF6DCBDF2F3C93D3A63BFBC646F92BC3587DFBC44E4513CBCB2173D543D863C7D20BCBCF51D2C3D889ABD3D3EEF1D3DAA1F7A3CDC7F9BBD97F0323D29057BBDE7B97D3C28BA7E3D77F01ABD9018D0399A48823C1BAF37BDD0395C3D5C957ABC2B41A9BC1E4180BC5E7F5DBD46D4A4BDAC24E5BC9DB4393BA6DF51BD41F5A4B9AA6E8F3C6DFD6ABD7052C73D883957BD92709ABC6E61633C3034C6BCB53ED6BDD54157BD6D9AAFBD30AA203C3E717B3CDE943E3B0EEEC43BF667CC3C8F654D3C1FEA08BDEB948DBD1E1C47BC28F95ABB086E013D743FD23C4B2B9A3D8E40F6BC938891BDB4A9C63D3390603CCE35623CA534723D6BB880BD5276953D1E62B73D50A099BD083CBFBCB01490BDD0C7633D94E7353D9EF5273D9422563B4D35A4BC2B035DBCDE74EBBC0C49AC3D300EBEBD7F57AF3D4BCB483DEDB50F3C3FAF70BDC6DA683D772EB73D86CC953D4074793D453735BDEC0FBDBC5FDF9E3D733308BD437C69BD37D7F33AC6B0D63C14B2933C9628D03CF92983BB8883D4BC4800DEBD34CB84BCE959BC3D9F600E3B13820EBD43C857BD5A6581BC378DB1BBF7E1A7BD73145F3DA6872BBDF3C2AFBC0E7AC03B62EC803DAEBCBCBD65A72A3C92178EBC47AFDD3D7CC2E0BBB017763D064773BDB0AA3DBD6C03563DA9B3903D91361B3C48E76B3D5B64953CD0C285BD7886333CD62B46BBF2D180BD92AC57BCC685B63D037D5CBA8BF411BD5B05D1BDDAD16FBDBC7277BC3B3D6CBDD00AC43B9E38E53A16821EBD8CB6A6BCBC4158BD4E1674BD23CCFEBC3F62413DE1E1BBBD44B8DA3C8E20493C5FAF6B3DF087193D0F8EBC3DE293BE3C2C28473DDF22BBBB9717DC3D2C7E53BCF0E4CC3D41EF58BC287E1C3C5C413CBD7EAB93BD9D380A3DAD7C9F3CE15DCEBCA20FBD3D5C1A9B3DDEF8473DB1C1A1BC60ACD63918DBF13CFF9A5DBC9F53B93C2FF343BD8A27853D8F078ABDFB74023D19100CBD2EFCB43D7D5F0ABAD37204BDC4C6873BBE34B5BCC5C8B0BD4EB150BCE478533D343BB2BD7D2887BD2C1A7B3DECFFC03C39FF38BDA7E78C3CE72E2B3B14BF0A3C92CF193C124C42BB1C2D27BD9A33A8BD12CD84BDD20531BD5C42023C504CE1BCB8B30FBD5A1761BDB8FD1F3D51A40BBD7F03803D90A766BB523E50BD79ECDDBB7A119A3C1EB0D33D96B5C3BD31CE363CA2C27CBD8BF66A3D9D3C3FBC320903BD1509B0BD5942303C0BD735BBF6DFE33D05ADE13DA8BED9BA01D9943C8C1313BDDB36593DDCF5E53C18E20D3CF76F9CBD0E3C96BD08F2493DE7BC283DFEBA4D3D128F63BD6A488ABC4C49D33DFCEB063C1376C6BCF25E25BD6F2902BDBFBF123C82AEC23C2D8F843BD8D2BB3D2872873D6804643DA25E133DF1CC173D91D21EBB20FD2E3DB996943DA98939BC83118F3C4FE19FBD10F781BDF40809BD58E89B3C001E85BD0F1597BD47CB1CBD03A347BD3D218BBC0DDA973C15A2D1BDA98E15BD54B1D6BDA09754BC30FBDABC023AFCBB918913BD23542EBD113E7ABD3715A33D6C4B033DA601F33CC6297D3D8FA3473B50776EBD461FC9BC9C40373C0FBEE63BA07449BD0DCB03BC72B0A0BDCCCF99BCFE407A3D8288793D9744F6BC24D93CBDC0543F3D89F2643DBF39BD3C4D998EBDC50734BD0CD6BE3D5ECE003B51C493BD43943B3C506C843D2A9B173B87F71DBD3F90AA3C82C743BB5BD7443CAB4E113D45B26ABDDE249D3D0B6D923DF75C103D947A90BD4B07573D935FA1BDCCFB973D84DB4D3D997E85BB3C59393DF72A1C3D1E354EBB80F486BCDBEF07BBF350873DDA7FEC3B7F95C13DC2EB103D8A1A673D8E4763BDD918A6BDCE70853C547708BD85B55BBD8E805A3D2130DE3B1D4725BD81E3F0BC364379BCFEE9DABD376AFC3A916CC33C6C6DF33C6D5767BCF748A6BCAB21A13D8E345ABBA117B53D093B053D78C4813B3CD9C83D5CEA82BC8FFBA0BD74DAACBAB5A1213C04F23BBAF9A9863CB0BE43BD2FBF47BD62570BBD0A10C9BDC9D0C5BC063C703C7811A0BD4DBBD83DAFC180BDA84EC53D37EED73CF555453D807FA53D3C178E3C4D1EAF3B0198563D5A19A0BC4B40313DAC87DBBCDFBC703D9A578EBA35B082BC40EE56BDFCCF12BDDEA46B3D6634F0BC5190543DAA02643D00AAA23D8FD3E53CFE75BE3C7A913CBDB6D0BC3BDD0A9ABC13259EBD5B1F61BCCB938DBDF3A773BDD68B4E3C06CFA1BB37A93B3D4AB2A33C37E87E3D958E9DBBE05DE03C58D9093C7FFD183DF31B9E3D4AF2903D0CFBE5BD2A4495BC1E75EA3C089ED63C3983E3BD1255C53CF30FA6BDC9DBD4BD58F0753DD1BA1C3DD46FD1BCDACC623B0D1E0D3D72E05EBD48FA733D4F7B59BD93353B3DDA44BE3D9BA7043CFB39A33C335547BDC19D2E3DBFE42F3D9409A13DAD6FFDBC7E73313CEA3E803DDAD1D73CA786D2BD00CB863C4AB9C2BC3125DFBDC308AF3D55800E3D5709313D59D6C03C17DF613CBFCBBD3B96B8A73D87FA8B3D16ADEFBA2874DC3CADBF673DB172493C12272C3DF51F88BD5BC382BD5846B7BB026DDC3C86137CBD49F5CABDE50C353D66DCAEBB52C8B13D0673ABBC0BCA9B3D8D4DC23DC7A372BC779E5B3DCB7D95BD6588D33CF40F5BBD886281BBC33AC53D78E408BDE76FDABCCC5C95BC7E1C80BC0704C53D59B01CBC695362BD2780EBBB99E5163D1782743D92C3B1BC3DDD1A3C2E95F13CA6A5923C1D34CE3D9312C83DDA9455BC2FFBBEBCA1DEFE3B01AD69BD157CEEBC0F63EDBCB650E5BDE0F4253AB40A693D8973FF3CF79612BD5DE9223C9CFFB13D5EFD24BD5ABE923DA7CA083B60E9C63B8623C5BD3358B9BD8DD870BB3FEC043D29F891BD87EEADBC68175E3D59E7733DB409BF3DE33ECB3C8B987EBD134D50BC2994E83D94AEF03C0EF900BD400B453D6865083DE4C2853CD29F0BBDD37546BC3A28833D4014CCBD1DECBABB05C075BD9712833B099B5B3DB0F2443DBE84603D5D1A813CE855A73D0ABD33BC6E3427BD18BAA63B107075BDF4232E3D0C23F63B8300883CE4E2553DC808333D349575BD2E600E3DACE80BBD1ECE1C3DCD7C03BC7F0533BD8A927F3DA9E423BD0350D4BC6959A5BD06E8113D90D5B23D7CD28ABDFD7CB13B049E813D0EF034BD5AB925BDB37F6E3D12D206BD60F57EBD63D89FBB4E566C3B3FEBBD3CBD4E5F3D7A1FC83D2361A43DC64C4DBD17C1DEBC8DBB71BCDB66013CE6CFBCBA20952E3DC2AE5EBD3AF5003D1BDEA3BCD80D123D3027BFBB50C9E93AEF6E8D3DD8159F3D4D24A53C8981D63D1C40E1394BDC553B77AEDEBA1674E1BBAFE1BA3DBE162EBD2ABC8A3DC7BC383DD54E7DBDC28B3ABD33E17CBD4908AE3BA4C8623D8009D0BD8FD7B63DB92492BC0F17663D3F2DE4BD8A9D0E3CE25B283DEEF1143B6457C3BD6328B3BBD9D91E3D57E0C73D03AC293D27F5B6BC3DC136BD1D17ED3B8069B63C9A30D0BB121EA33DA5B6DABC01A2AEBCE62DB73D1ACAA3BCAE28B339B0804EBD698C883D8A5A343C0B35A63D01848DBD51FB0DBB49C88DBC3C8D0F3C75B21E3C0FE25DBD7031EF3C29F967BC48C138BDFB1FDD3CEBDDCF3DB73C853DBB2ED0BDB90447BB28D3833D5831883C8F27A0BB606364BB906F493D2248773D982259BC95A29A3DD538B43C7C79FCBC382769BDA55667BDA61D793CCEEEB43C3D5C7ABD01503E3D82694E3DE629563DA8C698BD00984EBC42CFE8BB1A0F0CBC5E6F7F3D09EA93BDB067A9BC91771C3CF182333DA2B713BD2AC3E93B5A32353D031665BD8C3CF1BC0B2A8F3DAA2C743B729E913BB0431BBD8EED1D3DE41A06BD88A5E7BA8DE8E13C26185EBD127A39BD5A6495BC3922623DB462973DB06282BDB5CCA0BCB2FA893D31FAACBD9160BF3DB6D9793DCB500DBDA56EB53D02BD183CF57C93BD704FE8BCF213263D7885AEBD723E1BBDD656FF3B60A136BDE2ACAB3D9256B43BB05D8C3D6F7D12BDD3EBCD3D67DD883CB47003BC7F01093D87F34C3D3B260BBD47C0483BD93C653DA144973DE988523D8A5AC8BC1E9ABB3D84A5823D5B7137BD0F0D073D383989BD5A4C573C885303BD013F9D3CB79C2F3D5EEF393C2485B53DD91343BDDDA19B3D30FECA3D03CE28BDA39208BDD1F03C3DC34401BDFEF8843C6162163DA16328BDE710553D2532EFBBCB5B753D0BFC94BDF95897BD2E929C3C372654BAE2B70E3BBDEAB53BD8EDC13D525B7EBC01B1AD3D220DF23C63CAA0BC06470A3D9E300EBD0942043C50D8C13C0D75123C7AEF90BC2705A0BD773CA5BC3456A53C07DE78BC056002BCBB30B2BCA95FD63B71D6B33D516DC93D6F08913D7E8EAA3D6A0B39BD8A540DBDF6407E3C0C359EBC8953483C24D7DA3C982FE93B1A83763C2A8405BD9303B23D1DC1CDBBBBA391BDA84671BC29F7CE3C8475CBBC905760BCC1133FBB3695EA3CBCB990BD34DB723DDE845CBB32976ABDFE03493D2CEC02BD516FF13C36C5B43AB08721BD0544523D91584B3D1437A6BC98B2B13DD9F41DBD308394BA87DCB93C469AD8BDE11423BDB19F833B877B0E3CB29F36BCEB78B63C3881E9BD477761BCEA0DD0BC86E4943B1970F2BCCAF54EBDA3C065BDE9A8A33CFB40983CB341DC3DF94744BD4C3DE63C0F05C63B2CABE8BD683CE93DC9DAA3BC94D2233D5A3EC0BB6C81AABDEC7502BD2AC56EBBCF9C613D8B4091BCC0DB86BC3B15813D40E7C1BB719D8B3C9323C53B900536BD689C99BC57BE083D1930763C49112C3D80147E3CD84A4F3D82F03ABCEEC552BDA1F508BDAAED693CA5C0C7BCE775173D6CB4C73C9F7774BBD1109EBDFC4B8E3C475BD4BD9B58B93CC0995E3BCF1CD5BDC5630C3C3AE7A53CC81C9ABDC47274BD4422B7BDEDACDDBCB9E0723C4FA3A33CA33D66BC7C67903B7623E6BCB5C83FBDA4FA8E3DC07B8C3D6B2D863DFA9F0B3B4F9177BD6FCB473DF875CA3B5972A7BDC4A752BDE97E98BD2207C73D2298283DFBA52A3C7FC6B73BF87C6BBD83618FBD75BF4ABD8F43343DC7BB45BD4600C53C8A86E5BBA7F8E1BD50B2A2BC07ABCB3CE95001BDADD69F3B8264A93C043AAEBDED26B83D70A7E1BC3CD2A6BDDE4A8D3D1A4D3E3A5B8ED23CCDE4E3BBFCE9893D8FCF03BDA8C4CC3CCB22653D383F8CBDD0072FBD3EF683BC703E933DC60D373D2F79D53D35E5A1BC873188BDFDFC30BDBA9292BD66DA023DA435893D64DFD8BD9C47933C2F64D3BC30FF0BBB80A3003D5586ABBC65C721BC470F86BD190C41BDF86E87BCB4328CBCDB84893D8E74933BFC5E03BC5328BFBCFEE1AF3DC4F4B73D5F2BDB3DB513533DBB3398BCDAE79FBDA53F683DD88EB9BBE1D92FBD725E0FBD5F43CEBD806666BD0128A9BD2D09003CA5C7A53D8A3D193DCA50233D2104D23D6686C13DF2C108BDE720ABBDAA19CFBDA85389BD06FB213D3495B8BDF34B263DBEE7CC3DAD17ABBD3831C73DA9FAD7BB5550E2BDAD051BBD30E1E73DFA559D3D2575CC3D3F4C983CCBB36BBD17081A3D0C2A4EBD2E0108BA6516153DB2B1663CB239E5BCD2C2EBBC15FCA8BD0D488CBC72B855BDC83285BDF8D11FBD95BDAFBD15E17E3DD012B1BCFE8F933C02892BBCAB9FA9BD0396733D64FD9B3DF1681EBA43FE223DE593D73CEAAA26BD3D60863C4807C03C108A9F3DBC3EDBBC5BF5B6BD85C961BD122C743DD6336E3C66B9DFBCF01197BCCDC2A8BC1FA1833D4468BFBCF6008D3DA571D4BB170AC13C4D355FBC660F6B3DEFD47ABBC2F15ABD1D46B2BDE628A13D6A3E93BCBCCEA8BCD97CAABC1639073C26C0223C142D28BDB64797BD95FC17BD4FD3863C549F02BDDC0DF2BBFB84333DED35D8BB570DFC3CE43A82BC270AF33CFECC8CBDC16720BDFEFC623DA953843C6675D8BC29A696BB5DD9ED3CED81AEBDCA30CF3D5F083B3C8313533C5C9E443CE8E74EBC360FA73D99BD68BD45D9813C05CA28BDC999AA3CE374073CCBDB283D7C6783BBF0A0AA3BD4289BBCB33DCFBACD70DCBBA4C6C63D7842F0BB5A55883C084BD83B1B2EAD3D04188BBD2B8B933C3332273C120CB9BD8E6E20BD5C954EBDE15796BD5DB554BD3D14C33D79E5F2BA7969DEBC13359A3D920C0DBCB5EF893CE1A480BD30CDA5BD2D7DC2BD4C1658BD7829CEBC92954FBC057BC63CB3C5723C429F333B528AC2BBD3769C3C504233BC94334ABDFE9C583C2B56D93CBCE41CBD71587B3D154174BB31AE11BC3141DB3C987219BD3E1A28BC1F0D5EBC28BB8F3D1A4CCFBBF4C48C3BD103773C1EDCBFBDEB45BDBD199F483DD4B1423DFD841FBD585CA4BD871B583DB9EE0FBC583AD5BC1446ADBC0C3222BDE7499C3C478B243DE8AE7B3C2C52BA3BDAE721BD5F8A83BC10C6AB3C5590DD3B656E1EBDC7F599BDD74F873C587D1DBDC6E179BD987A893C332AD33CA8E28B3D19E675BC165D073C5D67613DB29C3EBC6D21853B73AD573CEFFBF03B346B7E3C135B333D25F368BDACFFF4BCB9A1C33DA750353DC2FC3EBD5FB24ABDE359EA3C2252023DE0234CBB481BD13D181F4BBDC06FF8BB187060398AE3B4BC3BCBCA3C1CBB5CBCAEA1B43D839B1B3D8805A93DBD5C033DAF0094BC9E6CC5BDE3F5C03DF9A5693D008CAB3D5ABF673CE7B40B3DD4D185BC28BDF13B06EC053DAFF5D7BC7B78613DD5F041BBD9D759BDFD59963D60D3E73DABE6943DC76C5C3DE7270C3DBF2A3A3D5C6F023BCBB67B3D42E7503DF4CE733D5BD52F3D2B2A593DD8D853BCE68DA0BD4A441BBD0A682ABD4A212DBD93222EBC8F137D3DB6BCE03A553D573D48DACDBD9F75C2BAE14A893DD32E89BC51E6B0BD2089C6BDE49F9A3C1F03293C723DFEBC8FB7F83BB8F8293CCA66FEBC814EBD3DD266AABC33A6493DB2AA0DBD1C930CBD12030E3DDF7D3FBCF9B8ADBCE391D6BD937950BD962C92BDD079B0BC0A3FD0BA7748BFBCB074A9BA007E82BC4206A6BA525B6EBC870CB83DDD7278BD7FAD96BDF6498E3D68E96A3C7CFE09BC591059BDC35578BD7775BA3C4D5224BDB115683C42F8B2BD8981003D0340D53DF55B513C0033403D9E534A3D5C3CF8BBE6F963BC10FE583D6896AE3DDAEB20BD779814BD904F58BD5E61C13CD2BBE2BBCBF08DBC2E31143D9002753DB4A0323D9A0426BC11C91EBDCBBB703D19DB363C646527BD93291FBD42C5C1BDD79206BD6BE736BC25B7B9BCB8B6A5B93B1CADBC0568863C8C75B5BC0932523C1605EABC313E903CC96664BDAE3E083D58C50BBC1EB41D3D749B933DAF0C95BD197DFDBC24EE0F3DD4F5A73CEAEB123D43A1893DA8925C3CD17F4EBDBF2BB43D1B41133D399831BD04ADE8BCC9568EBDBA72A5BD6BCF22BDE1B4E3BCD9FFE3BCEF63083A3E82FFBC53D9193B9FF45F3DD525B6BD43C596BD405C973D09F368BCAD9C0B3DB5FAA23B692847BDDBAD0CBD91822CBC3BFE46BDC9FCD03D61E401BDE44234BDFB903FBD9FC02C3C60F7E73D4716A5BDD9E8193D1B0A6DBCA7ED873D8759573D223A1D3C769138BD53F4B3BA1EBD8EBDB8730D3D2C0A33BDAAF6DA3B706E8A397AC81DBDDD1BA5BC31B60E3CF8C7133D1ADE133CC25A263DBC4D63BDB8FA2A3C2AB5DBBCAA10F43C9D01063D09AB51BDC27FE4BC94BA63BC382A7BBB408CC83DBAA6A23DE79B76BD2D3642BBBA45C83C8B8606BDCB19A13C151BC2BB13139FBCFA51973D6867463D48C2FA3C21ACB4BDA7AA19BC4FB59FBD6611593D9B6975BDBD5ABF3C2AABBDBC527CAE3D180F9E3DC7F7C0BCFDDE9A3BFDB8EA3CF8BD843D1D7B463C6611BA3C362F543937F329BCA6343EBD947CC93B1543B2BD7BEBACBB85C3AD3D6123823C7226ADBD02DA0A3D7F90353D1E0B84BD8B43DEBCC91C38BD5CDF593A25F6D43C2D7EE5BB3C4550BD574D1BBCF2BC8DBDFB82893C9EA7B93DB583D93D1F54DABDF57675BDA77C8BBD1FF9BBBD138BD53C184F8A3D416E353DC60054BD1855903C125E4ABA68AD7C3DAB1095BD4EE456BD423EEABCF93510BDE96E133DE632E63C61F294BD7CDE063C9FA6DA3C0CB5683D747063BD329B04BD4AE4A53DE78679BD9D8B583BCB7A64BD719AB93CFF86523D9A269639332F67BC0D58BABD2D3AC93D11DD3B3D012D61BC1C24A53DDD45293DF024A6BD0B9DD43C3EE91E3DE477A63B8B76D9BBF0AD6DBB2919AD3D1C4C1CBDD611EF3CC4B24BBD7C233B3DC651743CFFE0DF3CA0B68ABCFA1DC0BCF41D003D158AFCBC8BF926BCC48A5F3DB7E63A3C54B08B3CFFF741BC5CA5C53B5CB3B03D67D920BD322640BC1530913CC4FE1F3DA6E5913DE6AD5FBDDA68893C524636BB57C07E3D5B7E173D8B23703DE9BC853C63784A3DD1D250BDFE0EFF3B23647D3D28E6823B03601CBD806110BC53CF833CF3C90CBCA37D8B3D17FCD7BC61ED0BBD8C5B273D0F2D8BBD7A66C1BC099331BDF8FC823D0BC8173D93B13FBB3F97953C3231453D02D7893B25B95CBD11C33F3C6C019ABC7C3885BD77B70EBDCF40BFBBA1BC25BD01C9873DC39ED33D20C12A3D7A10E53CCF66C7BD0449723DB82D5B3D6012993D6A7ED1BCED14A5BCB2A709BDC870A93C651EA93D40289C3DE9A8DFBDB476713DFFE72DBBAB06B7BD148D173D351FADBDB925BA3D8004D8BD2B10E43CF473AABC85B643BDE31D45BD2FCCA9BDA88BA7BB5945BB3D5630D8BD63E99A3D2411993935D31DBCB29FD33D8FD2B93CACC1D9BC581068BD09ABA7BD93931B3D92DB22BCE1FD6EBA61D95FBDDCC7A5BD072E71BB5C4C2C3DB5EF153D5EBF843C3284CABC10D8063D01B9B5BD6E4772BD0BDA983DE0757BBC768A0CBD00E9803BA7A7273D5E2609BD499151BD4CA212BCFDDDF53C45F15EBD0263A33D88694F3D7CD188BD2AFEB3BCBB5ABFBCE9C887BD8F71B03D7A3B4F3D10BA1E3D4E77A9BD40805C3D15CBDB3B36C2D73C1FD18A3D30619BBD9AC4A23DCF9B373CF651BCBB34A0193D7BA06A3D8840E4BD24A1AD3CE39A1DBD4C6BF63C0205E23D2F3DBB3DE283E63C797BDE3DF7FBEB3C99A89B3DCEB29B3D4A3F86BB0D96BC3D4AAC30BCF8E2D93D51376BBCF99048BB0D19C7BD296CD93B4A4D03BDA460023D839C98BD827DA13DFB44C5BDA3989DBC446315BCD3106EBC51849DBCAA08513CB27B7DBC63CF393C5087FEBC50CAB6BCC4AC68BDD86BD13D88307DBDCE0580BDA3D8B03CAF658EBC40C556BD4FF4DABD677D8BBDC29688BDB64A8ABDEDBFC4BDCC1A69BD7AC5D3BD34FF9ABCBEF78A3CD3704DBDBAC4C1BBE66FDABB1D88243C4ADE613D5E28953D7AB4B03D0AF2143C0A50C53C9FC43D3DF70B4C3D5B48503BE191BFBD400E55BBAF2C553C02CE503C25AB073D0B360A3D92DBA8BB8758733D8F5EAE39B3F61B3DCD91ADBD3AF93C3D3FC192BDF2F91D3D7F34C23BAA0BB1BC0570203DE7D9B83DF702D4BCF1919F3DD29F8C3BA3E02EBD11B8213C98E7A73DD669BB3C52483DBC254AE2BC1D70FC3C5CBE7E3D0C53BD3C77C10DBD7ECD7B3D6E441FBDB6A7103CBD616F3C51BD4F3DB428CD3C284A9B3C8BF7D33DF13E5ABD218C86BCDB632ABDE3A0A7BCFF67A2BD4FD1ACBBD22516BD1204C9BD5E04A93C8F16BFBDAFCD46BD298EA23D3346323DB74F853DA69DD83DFD2AFF3C493CA2BD3154133C3506723DA415AF3DA3D8763C585D3B3D2EB7B1BD486746BDC46EDABC604FA43CD12A9D3C6706133D927D37BD8CC9163D886DB4BC90AF88BC62C4273D51A4C9BDC82A813DB23CBCBD261F7B3D15110CBDA59100BD614E07BDB194133D591A8DBC18FCA0BDD3DF48BC22F4A9BCD3E3023DF4AB9E3DB467153DBA42C83C25F7D03D50B2843D51432A3DD53B333D7D63883C25C102BD22D3CDBB613D15BBF71CB6BD00B0303CD24C813C89D097BDBD797E3DC74C7EBDC5DD1B3C16E02ABCBEB5983D00CA273D451879BDAA1377BB9C917EBA7FADB83DFF868BBB3A2C56BD3EF23C3D528CACBC1CF34BBC4EEF23BC6F2B30BD417EAB3DB45FA7BCE578CBBD3F8A06BD25A6DA3AFE25343DED81A13CA4399EBC5457B5BDDC3C303D273D51BC5D262BBC029EBABCC6773BBD9822B53D710D9A3D611F5FBC4A8ECB3D30BD0D3D4B673EBD9A35CE3C2B67C63C91698ABDA29D03BC3B0567BCFC558DBD05A385BC34A7B43D12A819BD45FF293D452395BD9A6EC73CE5711EBDB0A5C3BC9926BABDCDA4EDBCF0F398BA4527783CD16578BDA7B41A3DF1D356BDB0BCB5BDF79A6EBBBE58EEBCDD112BBD1A54F63CDA815CBD46084A3C5FE1D1BD7DC43F3D0362E83CC235333C8EFA5D3D31080BBD047A8B3DCE8F60BCD084C93D7F60D1BD83BA1FBD4972AEBC210C253D890770BD8C7B9B3C0375D43C16DD483DB97953B901EB943D5D073E3DEFC9563D68BAACBDFC6D133DE0BBC0BD71D94C3D7075EF38CD9689BD8B6484BCD7B8E1BD3025E8BB2F75E1BCE50ABCBBB528133DBDA214BDBD9CCC3DCAC46D3DC08563BCE72CD6BD4B5D7C3CB601F63CA228AB3B054ABA3D57549D3D3A27973D38E5563DB7E79D3CB90C87BD0ECA65BD320041BDA6551DBD519E02BDB2ACD3BDB7CBF4BBE82AC3BC40FD843D446FF83B0492913BA5CAB73DE14209BDB3C042BD5A7E89BC7318753DE50B79BD48870D3C63124D3D56F2A63D5153543CC2470D3D29D4BD3DECA1653B3E3F043C1637D03D6273813D5F03123B19E25EBD84EE0F3DB5AC163C258A2BBD2DB11F3D4C17FA3C43EA9FBD939AD13DBDD1233D9F856ABD9FD8AC3C1A61C0BC1449413B95961DBC05DD92BC436380BDE170003DBC86DF3DC3076BBCD552B1BD0F15693D21021A3D9683A7BCC7DB973D692B473CB45D2CBD44349EBCC867673BF1B2DDBACDF2A53D0C35CD3D49986BBDA1367CBD817CFA3C9F7320BB8CF7D43C4B5D173DA7AE3EBD9A77833D00D5793B693785BC8B9500BDACE4D4BC7F55093CA543723D3C2ADC3DDC1C22BC5E29EDBCB09F903D600381BD09221B3DC8186F38AFDF57BD03A5AF3D69153D3D566CBA3D0BA5453DE8A68B3BDC328B3CAA9A84BCF382D43DA6162FBDD71A763C3F6B98BD903BC2BD482F1ABAA199C73CC86C183D30003FBD26C8503D907E94BDFA0C8F3DF644A5BD1033E0BCD28B9FBDB470BFBCE3C236BC28CC343DF3F73DBDC1AE5EBDCB5B94BDC3388C3C0EA8FEBB3E4A963DB6F8F43C576C9C3D019002BD55080F3DDDC9E43C48F889BD2254AA3D12A9263D0A0E08BDA437173DB0BA8EBC7DD1033D0B989F3C115F6A3D68366B3C83AC173D4631C5BA1E158D3D5921C13CA3410CBDB5D0473CFCC1E0BD224B5C3CD133C3BD3764403D5B8D4C3C31DEA9BD7F80FC3C91EF953DC5A0703D86C218BDB8463CBDCD1861BDA5723F3D3C9B1E3DF7EB62BD64965BBDBAC7383D16B8D4BD5C13EBBC6DFC0EBCBEF31DBB0593443C0F9DBBBC3B4C3A3D89CA64BDF5B1523DA0ADDA3C85A5C4BD5050EFBCE73E89BD3A95913DCC1D273D887BC73CBDB984BC1C2AF33CD2C729BD49A4A93D25CD873C5E1C723DEF1F9C3DAC61DABC2B3CA8BD296E523CAE69E7BCF0DB1139CFC689BB81DF823A7B6F19BDCE199239CA6371BD925030BD3A93F73CF724DBBB88AFD83C52C947BD5092A8BD202CADBCCA115F3C75BDA83DF1FBC7BD3A67E93C4E5BA3BC3A849C3DCD542CBD717C8ABC13EC243D9519BC3C05C90ABD4DC8823DB8D29A3DCE7866BA5063E93CC32FB63DBBFECCBD325C8CBDB05B7DBD89128DBC26C58C3CBF01A4BC36DC1C3B754D143DC337FE3B76E59D3D0FD7013DAEF5803D70D990BD8CCA493D17E83BBBDAEFBB3D4216853DC89430BD98CB37BC9C6B3DBD2D47D0BDEE81D03D7AC0B3BC618908BD71B890BD2543F1BC60E5D0BD3F007D3C2E8F84BD51428C3DA054D93D8F6282BD2F3FADBD4E92FB3C44F90E3B68F6763DE1FCD33D93D44A3CB2CE303D16C50B3DBA32AB3C54A2423D7152503D40D4DBBDD551173D196A6A3C2A6135BDA359E2BD1811D1BA5D4FA5BC264BC7BD6A6174BD1737B0BA275D013C0908AC3C18E166BDA49A753DB929D13D8F3857BD9CF8E23CFB037DBC20B610BB31C3833C8B8301BC7B80D73C78F475BD6191093D2644993CEC7CF3BC4601873D842B813D59F244BD9E3EF8BCDDCF52BD899C6EBD4CAA463D62406B3CBD6E073DF16F503B5068CABD9C433DBB275E1FBD6B0FB3BC669202BD9253F1BA3457323C464329BD2541193D720EE5BDEE7180BDEF84463C745C96BD567CFD3AC0DF9CBD6E57BCBDEBAB893D5B7D75BB42B901BCB9E5703C2FD78E3DDA91AB388DA2D53A8475C33CA440FF3CD185F9BC33B49DBD6417AC3C4AB544BD9A7C8C3CB83020BDD2AE0A3DF0CAB3BD5BD978BCEE80A73DFB66803D010546BD2E7A04BD84EF4A3DF21F44BDB1D6263B1FBC5EBD4828763D9E9A783DF815D9BD036108BDDB42BA3C47D8CA3C9CDF9B3DCC0DDCBDDBDF0A3D85AEDDBDDB6A82BD7862BABD7EAD793DDF10683BA48397BC75291ABDDE27A2BCB6E5A9BC6CB1AABC6C74BA3D2427A23CDCE6D5BC3571D23C30BB4ABD418717BD72FFE63BBAC1FC3C44E9FD3C3C6F4F3D97A4E8BB51AFA83C5DD9B6BD88ED913D2948DF3CF4727CBCBB58A8BD9792BE3DD6C37ABDC64A8EBD6A51ECBB47E3CCBCBF00D1BD69AD44BDD549A9BD8AEBA83C566A7B3D4E944CBCDECD653DDF3750BD409F243D3CA274BD4CFF043B8BCC9F3D0375633B1ECE40BD52493E3BEF5E223D8241ECBC4DF2613CC0FC103A3E9E743DF851773B8E92483DEC6F693D064F6BBD2D4505BD4B2061BD8655663DFD599F3D6889CEBCADEF85BD34AC493DE7654DBDC538703DBF91913C061EA5BDF983BEBC33FF0DBDEA7C0FBD3529D23B4FC5BF3CF011D2BA5255E73CFB36CFBC1657223C71996ABC44DCEEBCD2CDD33C10D3573D6E278DBB4E02D9BD5236903D40B1073C5ED8613DBADA03BDEC86C1BA0B0FACBDF50959BD8E541D3D827C9B3CD14D543DF4927ABC8D7BCDBCEF3208BC24C0A4BCAD3CCABC167F53BD67F2A73DFCA2123D1DA8BB3DAE77A6BCEFE9773B1FD48EBDBA295A3BCE1CEF3B013E103D33FF103DE9912FBD69E087BD734498BC37576A3D2C1F04BD35072EB901C62E3C83AFAD3D8FC0AABD00F9D23D165E9BBD0AFEB6BCD92AA83CA2760B3C4DD78EBD1F52CABD3C77F53A35D288BD071E8E3D717249BDDCEE5EBDCA14AABCE03764BB0835E1BCEC3F63BDEFA27E3CF35177BD8F55FF3B3AF44B3C635ACCBDA59857BCF740EFBC1D03B1BDF9002ABC515522BD72708A3AB5B09BBDBF6EA2BDBCF3143DF489A8BB8FF00B3DB26BC73DB64D41BD7A581E3D2E8A53BDF6CAE53DFFEA8F3C5D2D08BDC03BAB3DBE678DBD61A132BDDDDEEF3C886700BC1D4803BD5A7BBCBD5B5078BDB65180BCC342F1BC018AADBDED778DBD87919ABD14F2A9BD653FA0BDDFA2E2BDB331D03CE4238DBCC6825B3D3E9C22BC5357803CC051833DDE4280BDB390053D8668873D641B7E3D9FC63DBB142C393DFCADE2BBBD6D7C3DE8608E3C5ED51BBA1BA7D83CD2BF14BDE3CFDDBD4BF113BD582373BDAEC51E3C89C8B1BB263E6DBDACF9F7BCC883913C8B019A3CD7722BBD727F493D52EFE53DA23E1D3C8E6C933C2DFF91BC52E1043D2659AFBCD7AAC2BCF3ED773CA6A79DBAC16D693DC1E4213D5FD1CFBC178D3ABCDC7DA93C8F438D3C63B1C8BC6B39B8BC3A94963C040E88BDB49587BD77234F3C771FEEBA10629E3C7F1F01BC6A477E3CF7E1DA3D15B079BD9A1D31BD1A449F3DE24D8F3DA10D69BC9C958E3D23375D3C22F88DBDED55F93C7A019C3D0DDAAABCDD52623DF59542BD86AF853CFBD880381E7EA63D42D9333A617DBB3B8DFCCDBD9BAD543C15204CBD375D78BC96F9C5BC5BBB1E3CDA924ABDFB9A83BD632B85BD036E8BBD05E2C7BB77EC8FBD05DA0A3D5110533D523827BC4749943D8E471B3DEC40B5BCDDE300BCDF6B8B3DAE475B3D5ABEA6BD6B0E83BDF2CB853DE32294BD8689E0BDD52A603DB017CCBD356089BD53F4C63D2B3884BC029D00BD195B5E3D3A9990BCE246A8BBFC59A3BDFC99AFBDE466083DE780C7BCB9F20E3D1DABBF3C35809F3DD394083D8413BFBDAC10E43D618F16BDE241F03CC6081DBC162E343DF7B6723D6748043D8E4C9B3D016EB53DA63B0B3D93B425BDBC49713DD7B88ABBA794AD3CC119563D093F743DA945D43BEC7A863D95C857BD152BADBC30CCAFBD98EC263D57BD45BD66C59E3C5AE102BD6CFF4E3D8C24953DC1D02ABCF314113CD2A5B43DC60669BDB9B18F3DA77073BDAFDD323D8118B1BCC16E89BD7A8F8B3C854D08BD4AF8E43BC4C282BCF05580BC925DCF3CD19113BC3143C93DE42DA33A56428C3D22ED3BBD4E75B13C557A6B3D97B96EBD73F973BC44B8B13C243413BD6FAE83BD36A37FBD4901233D4FDB2FBBB48330BDEAD283BD7F9F063DC989AF3BC5A1C3BD587E863D7F7EC63D36FD54BD6D2BDBBDBCCA9BBD2A5A4DBC5C8784BD400A54BD766953BDA720FF3ADD823A3D7BA906BC3FC9A2BB9D9BDEBCBE78A9BD3A356FBD2F39CC3D90D8083D93EDD5BD52D6D4BBBD67CBBB59D887BCA019643D6846ED3C688999BD5DF4B63C268254BDA142F5BCA35306BD209EB5BD2C00F53CDF298C3C2B3A61BD760B3A3D4CA3B93BF23D6BBCEA80813B77C0723D45B1ECBB84ADA7BC18FDA63DF54A823C182D293D11D414BC12C5193DEBFE1D3D3D8685BD6F3D46BCBC2BA6BCB537A9BCB47B4F3DD721E73C2A5993BC054333BD07A91A3D77FDA7BA2C71E23C5790E93C15ABC43DBD02BC3C8F2DD5BCF86C073DE2FF17BDD71B2EBDEA0B013D34FF353BE21D873DD75DCC393577C8BDB7EDAC3D804D193CEA31F0BA89C4B23D50BAA7BC9BDA16BB147282BD6FE8233DFFA6DB3B915E363D967086BDAFD68C3C82716D3D877DD8BD82EE7EBCE7CC03BD0A862CBDC4DB313DCF59943DA5758E3DC0EE533DE116EFBC5A1277BDAC3A0BBDD1278EBD8AFB20BD7469413D732B8C3D2CDC20BD42D5953DF5F095BC3C26BC3C94C1A6BCC852583DD4E1FC3CF64949BD60E780BC63B322BDC7DCB5BD2B69BBBD3AD623BDC516AFBD22069BBA2BBD233C2E2EBCBCD494583DDB7D1E3D14EA15BD07C1D7BC2AADC33DE78D68BC2B0D72BDE6769ABB8C02883DAFF1AD3DC8092DBDD5895DBD8B3B513D369C49BD0763C43DF5F6483DF35A483C84BA1A3C4B0CF23CE0F3EFBC2A9B713DC33199BD27096ABCBE24283D6FAA9EBDF1F3153D9BE9993CD2126E3DC6EAD3BC63ACA13B5F33CCBD6215B2BD5F4C4A3D327A48BDFB57083D9A8F273D845148BDE5DFFDBC3086B3BCF9A2AF3DCE6E623D7306DCBB1B5FA2BDDE4F99BD9722A23B789BDB3A1F6B4CBD17109DBDE2D0E8BA8CA5FABC710F83BD2643E0BD2C9287BC46677EBCBBFF89BB0D8EEA3C8E58713D3A18A0BD472522BD356F5C3D06E41CBDAE8C0F3C705525BD4433573CB8265BBDF4DF19BCA16816BD314A48BB938EFEBC4E43353DD838CF3BF064053CF1629F3B9B9601BD008C913C34F951BCCCD3403D7F412FBD18D6CD3DA3F6FCBC6DF5E1BC88A348BDFDD0D3BCD861C73DF1F2453D8CD5433D4F5801BD77E1AF3D906C883D1217903DC99D8E3CB6F3C3BC38CE5B3CF462DC3C4A4D3B3D2B0B93BDD2A047BDBC9CF73ACCF0AFBD443C4DBD7E82DA3C176005BD1E47043DCC3449BDF446D03C420273BD2451D13B38A0BA3B410A27BD9DA456BD89E876BDD5FF863B02F9CE3D1C8AC13CB0C5023C52E25FBB899887BD3A39A2BD46ACBBBC3557F4BCFEB9D53C20ED2EBCEE4D82BBD1F5843CE07727BD218D7ABD4A3981BD2E00B93CA75054BD949799BDE768833BE2D9383C57F32FBD43C8143C6E125EBCB4C1283C3CAA033D2886A43CEF659CBD9E294B3CC6F4343CAC1A20BDEEBE7D3C39DF12BDB87ABBBDAD28E33CEABD83BC0CA8D6BD7F4DDFBD27C267BD6067D8BC00F486BDE6E2E3BCD3A8E3BC37F499BC1B8CB2BC361C2D3D86E502BD2FE73E3D3EF5BC3D7F3A2EBD6B54333B5A80D3BD4AAC073C73E5F2BC106D39BD5EC453BDF8EA98BCF8A15FBDD521A9BD506CEE3944ED1EBD31729FBBB6D0953CE8F5C03C1D4F9EBB9A39E53C727BD0BC42CA67BD8197E13CABAD9DBC976446BB7470903CE23BA7BC954883BD70BBEC3CCABE6DBC81AE303C4CFD53BC22B93DBCD2EB5ABDA7FCBF3CE09E0DBDA2BCA33DAB6C943CBCBB82BC2A679EBDA8D359BB2170B73DBCA5C13D3C52283DCD82E6BCDE69C63DC761A33D0AACC5BB75E6C1BCD82E763D3F508DBDBEC4083D06A608BD58C5A4BD461186BDDF4F673DF115293D7E4AB63D51FB56BD569B6D3D0B079EBC6D23C63C4B1FF0BB3D9101BDEF23423DB732063C3A98673DB048A53D4E69E43D46D2A6BD20D8753C190F49BCFF616E3D809928BD1D0EC13D0C84553D902EA2BCFE72183DBC1EB83C3365153D618BD7BB9442773D6C0C5A3DA311CA3C3EA14C3B2774DD3DD098593B8EC2CD3D11D5BFBBB29450BBDC0E8EBDC648903D455BBF3C07DE983DF6B4C13DDBF4B53DBF57CBBD5583C9BC6369003D543AD4BCEBE840BC7DE13ABD22FF28BD2C86F43C8E6B4A3DF125ADBD57B3893D26768BBD5AC030BDE64B3C3D485A363D96A5693D492C47BD6D0523BD4EB334BADB684F3DA06BFEBAF55BCFBD3216483C6C9921BD03EF40BD15B814BD8625EBBCF340993DEEDF44BDE966FFBBFAF8A2BA585E743CBF30B83C11BE9ABB1925E13DFF68CFBCB8DD913D00774CBD2DA05DBCB995163DF9A8AEBDC8005BBDE8C9603C23ECFF3CC984E93A0E3C883D7BBD15BCEF68E23CC6443BBDF0262E3CA3B0913D88CA1BBB494519BC18C81D3CC154CD3BFF0E263C6AAAF83B6EA9B4BC5C2518BA2FAABB3CF6E66A3DC5C2ADBA9C808DB9ED88733BD06936BB2EF8C2BC3F036ABCE52C273CCE7EA73D112F55BD54335C3DF6B48EBD7C34883C1983A23C405B753DD8FD5D3D9F0A4BBBFEF32FBD945EBABCF14D883D718273BCBA20C8BC7ED7803D7B14ACBD30D891BDB20C91BC9B8E3A3DF7D3783D23AF6CBDD1C8793D5EA4A4BDFF3559BC8220893CFEBAAD3CE6DF1DBDD72A1FBD9E4CE9BD278691BC5C8868BD0C75DF3DDC643C3C70BE62BD37497BBBCAB5443CC457463D6468C8BC24C758BDC7F46ABC925CD73D0F34E1BC9C4FD43BF2FE883D242F273DC4FC833D4DAC63BDB77F8BBD02292D3D74831D3D2536B6BD838C853DFDC7B5BDA6D318BC25409BBCE549B6BDA433423D2D8818BD2240863B00841DBC9A8912BB4EA80CBD318F133D7374D4BC9D5BE83CF4FEE7BC5FD9BF3C9B1A00BD294B593DF580383C73BFD03D8142AE3B80990CBD7C541FBDFCB9333D1DEB333D3E2D40BC21EE843DDECCC9BD85E3783D949A8CBDBB7C793D9BC1EF3C2AAACE3C26F928BDAAFE843B260B5FBDBF12FFBBED5589BBCBA290BB1D1FFF3CB18CABBCF04F193D1550B1BC8A285ABDAF290B3D2FF5C83C5FBB81BCAAA020BDE4028B3C89CDE03CC7ECDE3CB856A63D96CBCB3CB58383BDDA3047BCBCBF52BDB962FEBC559A4B3C9B1C69BCE53E1B3D0711DDBCB4D89C3AC77E94BC5A1E693D0554893D556D2BBDFA133E3C5934E33C5B67083C388A6D3D62CADB3AE8679A3A62F89A3B1DC63C3D00F2F8BC662915BD9ED8F5BC4EAFB2BCC2A14A3DA47C5A3D8665453D0E6297BD2D2CDC3C7830C7BB4E01C3BC15A6F3BB004C17BCBD37DB3B9D3616BDEE4D92BB4E5A97BC6C218F3D5F0E093D3D02313D9A756BBD663AB4BCBFA68C3BC5D951BDA18F49BDEB50633DBF37C93D411D413DDCBCC2BD1424203D27FAFD3CD822DC3CDDA2F23BAE18443D5579403CDCFE81BA866D20BDBCAD4C3D3F0D15BD825AB73BD2C034BCB5FA95BDF1ED07BC78DA4FBDDFA963BDBA78D23D5FF50C3D3D4B5F3DE9998B3BA1DA11BD020BB13C8C42E7BD3966EE3C8318BF3D20A1053D287DFF3CBCE6B53C369E063D1B40933C5DFC623C5ED550BDAA670ABD34848DBC2A3568BC7B3DFC3CB09EF0BCFEC16DBD86AE263D1F251CBC7C27443D110D09BC0EF2F9BC128AD73CF24D8FBDBB55B4BCDCAA10BDAAFD05BBE1AFB9BB2B83243DBC97F8BBD31884BB03491ABDBF0D66BD213925BB6C5E78BDFBC0513C1C34D4BDAE507DBD4DE654BD517AB03B6BCD333DF1072FBC371375BDAC787C3C9C07903D808263BDADBA473C8A63393D1220683DAF2A05BC35E992BCB01A4E3DC08D813B8B2F1F3D7856C4BC9C977D3D137B09BC6E4E443DF17F893DE8C4D83AEB4CDCBC40A74DBD36A80CBDC78166BD53A24E3DFC6507BB6E320E3DEA39E1BCB06E513C185336BCFD1CFE3CE2449CBDE13699BDA282373DDBFD02BA983EE23BD7176F3B0A5AD03A1A78263C9563BFBC739A2C3D160AA73D045ECFBCAC59F9BB8A31AB3D96D164BB99051E3D1AF3E43DCCBC243DEEBBF93C7DBF81BC403801BD0036E5BD509B7D3D63E26E3D5CB881BC6207253CE843483CFAFA9A3C37BA553DAA831ABD3E96AB3D503D46BC20B653BDDAC5CCBBCD68FE3C5417673DE924E4BC9849E8BCEA4FCEBC2F1633BB11C0BB3C379F1CBD806193BD04A3B83D43CACABC8E7861BD8315DABC0DEBBABD8C135C3D6769143D535B083D2446DBBC566B0A3C0E2BB53B95BB9D3C70148CBD5425323D6E625ABDA862723C313B42BDF04702BD6657D83DF69769BC487B5FBD3598133D8BB063BC59ACD1BD3431303CA6E81CBDF212A33D508E533D1493A53C30BE8FBD9CF7903BCE81A73B4CCE05BC037B99BC59E67C3DEA322DBD668A2FBD6F20BFBCD185DB3C556AEE3C28EB85BA46F3AA3DF8CBCFBC95AEFBBC9521A13D369D523DBE8FE4BC4F1DD13C0C97523D01AD9A3DE086133D26233B3CD1C0BDBCD97B373C597E1EBDD41F8ABD9A40623DE4C50FBDE8570DBD0F9BEC3CB6BEA23C5FB7C4BDDE3CC8BDE654C63D03CB79BD3806A5BDDE5DA9BD0E7BD4BC4B098C3D657BB23B3B088C3DA560483DFB70353C34549F3DBEE4CABC0DDBBEBCA0F395BD964392BD9E0F723DE066D93C18BBA2BD23882F3CC556A83D7D57C0BCC7F971BDE27A03BB993359BD72FE31BD563B0BBD0FA9EE3B55977BBC48CB58BD3608BCBBDA003FBDB8BD1FBD828B6FBD9B06C33CD6F80E3D02D6E7BCC979DEBCAAB387BD02475EBCEF29143C54B38FBDB57746BB26DA8FBD90DCA93C136F1DBCAC416BBC08C1983D9FB8193D50820ABCF64EACBCEC59113C8588F9BCF14A5A3D18A3473D0B4A71BD8332EB3C3D68CEBB79D272BCFD68A3BDD02FA83D0A33393D500C933D9F55BDBDECBE23BD659EE7BB4A434C3DC45A8ABCB767623D4226843C706361BD268160BD5B11043C9156B139959AEC3C5E304C3D32DAAC3C7E8C903D8C98CA3DBC1ABA3DB3F09E3DC707A83DCE341C3D7C7518BDC4F796BD4294CB3C6D8D423CF1D9953D854D24BDED8ABE3C000E393CABA6BBBD0723A3BDA20FDB3DEA7FE2BD5ED391BDC2A163BD62E42C3C4B96273DD862AABD138EFBBC35B377BBE544893D0525393C306B5CBD32873C3CA3E91E3D987FFEBC194FC43D32663C3D719FAABD9BAC84BC4C969ABD853F25BD87DC7B3A41EC2EBD6B381BBDC1E3A4BCC91F483DAA3C82BD83809E3D53E034BD9B820DBD50A64C3D80C223BC90F5FA3A30EAD6BD1D569EBCFDBE3CBCC7FC213D5288C93DB3A75CBC90CADFBDC12780BD60E35ABDA9BBD13CF41DD8BB916A373CBC8665BD9E412EBDAC34553D222C643D60A1973BFDCF4ABDF61E393DD2425C3DAE374DBD12974EBD5FDC65BC3C3244BD4DE5C0BCF6641EBDB03B373DEF8F29BDDB0ED23BA9B6B53C94112ABD503956BC348326BC41E2AC3C2933FC3C6D5BE23D1A491DBC8A34A8BD9289C23D8FC9803DEE98C0BCC15747BC84174E3B1774433C0A49383D3809913D4039673C5E074FBDE2202BBD6DD96F3CB4B983BCB30D943D917AA6BD67274E3DA18B90BD8F526FBC41599F3C4BDE7FBD00599A3D1EB171BC540A48BD11F1D73D5F7981BC17F120BC4755ECBB23E817BC27FC25BD96E2763D790791BDE61FDC3D891658BD988AF1BC096BBABCE4935EBD69F603BCB764CCBB5CDBE93C35C00FBD38C391BD861F06BC602A263BF2FA95BCE8472FBD79A99F3D333F14BD9FA185BB5C43353D70D81CBDA8DE9B3D4EA921BC76B041BD3B85BD3BB8A8843C0946043D7246FEBCDF52243DB383453D681BD4BD89394DBCA1B2C63D81152DBD6ABA623D63F34C3DE80C4CBDA23478BDE8F1153DE0B3D53B508D503DC78C843DC4770D3D03E91E3BA9BDC3BD043C5DBCF30AF6BC51C3CA3D2A5C383C247FC5BC4A4592BC71D63DBD1697923B78FCA33D17CBAB3BFDC2713CB18932BDEE5EA83C669FA03C0D71263D22859ABD3B41C9BC4BBC78BD0C3B43BDA7E6253DDA4D063DA984FA3CD804CABC3F6A463D21C73D3DAE1798BD266E753D9815C1BD8F553E3B54C587BDA3D19B3D1AF5F83CBE3AC0BD06AE883D76CD653C6F8AE4BB0F9587BDBE563FBDD25F123C55AB3C3C6E08C7BCA352AFBD2AB131BA1919233D10B4863C9200033D8A9D71BD1E73DEBD89D9C9BDB2F0DCBD20D4A9BC06DECABC7A316C3C518301BD234BAB3C09D583BDED44813D5827A3BDF5E877BDF8938BBC392A75BCF63530BD1B40D83C70158F3B5DF086BCEFCAA6BC364ED13D22013B3DC9282FBCC0621DBC4FB8C3BC2D22A2BDBD536E3DCB6D84BDBDD3EC3AE389813D10CCC33BA13223BCA05957BD13283D3DF5E0FB3BF33999BDCA6B203D66BD113D5F9CD7BC8A1D27BC3C12BE3D6275183DEFCE2EBC83DFD33CE1DADFBB6FA6F63C2FA3AABD97D8733DB853583DD1D6983BE8D236BC5BE68D3C47BF8ABBE86626BA9D6099BD65E2263D8CB619BD37882DBBAA0CD1BA29F38F3C2862A7BDED48B9BDC60AFD3CFC13B13D6B27A7BC2A45663D423849BD322D78BDE501063D4689E93C76898E3D91652FBD471156BBBA3043BD78129D3DE98827BD8E9CB4BD74E285BC76FE43BBE911163D815D34BDEE3DD53DE8804F3C030E643CB98D20BDDF9C0E3C686FA9BDBCA7583D02BA0DBDC642D83CCFB10ABD0B22F43C9FE9E83D57D57C3DD03184BD6CC8203D7035323D097E35BC8836A8BD17BA54BC24FB36BDB768173DA2B0F6BA2053AA3D8C3E6D3C4FFEA3BDB44C883C01A00F3DBA31CDBC3243083DF4167FBC86E29F3DF62B00BD5E80D13C082A283C5C2D993DF47A523C49248D3D24CF713DB472FA3C3F0813BD524EA9BD226AD1BBF0FBA13B88F731BD417389BA71395C3D7ADAA3BC4E0D7E3D935E45BDF0950F3DC1E76F3DB94CBF3C9BAB99BDB1CC9B3CD9D595BD4B3ECA3C10CA8DBD8E56DDBB0752F7BC5E176B3DA973933B43010FBDB198BEBD7FA2A23DC1A7D9BDD99FB43D5C205EBDA4C5E33BF9B48EBBF00ECA3D8736AC3CA4F37EBD05C9603D7249ADBCA450D3BD59DE953BB12B6EBDBEEDB13D0A8BB6BDCFAB81BDDF37FB3B9640113DB73E2A3DE87EB63C39C593BCDD6AC1BC18EEABBCD21959BC75AAC33C79DBA83DEC958A3BF4B32ABDFD60B53D221000BD19F7D43B5AF50C3C3CAFB03DFFD239BC8E105BBD3DEED5BCA3EF4C3DA6BED23DE80B4BBD8406533C52AE6EBD90E546BD07A7B43BF3B6C23CB16809BDB91E47BC352EE4BC980EE33BF6F865BCCE8914BD6DEC733BF976AABD54948CBC16338C3C92608BBD8C12C3BD7B126D3D032C5B3D253064BD7FDDAB3D02A3ACBC2B9726BD80691C3CC9C4613CC4E677BD0EDFB03CA3A3C1BC3E88D7BD6C29293D4EE696BB6D85233D66F8A7BC65CC3E3DC64623BD215953BD48A21EBDEFD7BF3D1D2EC43C2068323CF12050BD5A1F4C3D4DCA3E3D89AD123DE22C823BB5D573BD3D471F3D9D23DDBC7D966E3DEDCE513DE5950A3DF2A947BCCEC95EBC40CB4D3DDD8245BD619A2A3DB12B4BBD9EC502BD52F028BA8C341FBD2B16563DB36B72BD5691DB3DD0CD13BD027F7F3C86DB4E3D4D1B933BEE3A053DC2D8AA3B3B34A3BD9D77F83CE42722BD825E603D9A356A3DBBBB8B3CB173ABBC2E888FBBF6C122BD19D00EBB34AC8B3DAE3F06BC2D2EB8BD2766F53AB4AB89BC9E2745BD5058EA3CB9A593BD9E0851BBDE344BBDD4559CBD4B6467BCB8A6A6BD793FC8BD94FF6DBD47CE44BD7EA542BC4EB9D33DB4FEA1BD4D7B5A3D8B6201BBC7256D3B784573BD3FF5E0BCB6CAC33C0472983D04324D3D38EF50BD1BECC5BDB80A08BCE0F9E63C2784BF3930EF5BBD99BCADBC5377083D45D2E9BAC38FD73CB78D493B46E9CA3ACB82C0BC1A32FA3C784FFC3CDB5265BCA2D8623CF76AFCBC146DBFBD92E3F93CA6D5B5BC20F81EBC43419C3BEA9418BCC6FE24BC0297B5BCD179273DDC9F03BC412287BDE375223DA36C8EBD6872263D4727503C492BCDBCD39E8EBD272EC0BCA464873CA40DBABD5444F53BD66C0E3DD58DBEBD0A6A903DF4283B3CE64747BD4A04043C54CA503D9DF985BBF975E43CE245873D6AFA463D9A4ABA3CA4577FBD1143B5BD52DD5CBD18413D3D43B97BBD49BC023DFA87FABCC9B6EFBC04B2C93CA26FC0BDD1EB953D4F20CEBCB37FE63C4A20513C503722BD851EF5BBFDD0AE3D2709653DAE968E3DAD77B63D3F9AF53BA5FD47BD44C3723D3DE2D2BA012C54BD6DB1D9BD0F7333BD70D2093CD948C13C15CC21BD4809043D5E45BC3CD7E747BD4258163C479956BD89BC00BDC34911BC58CD8E3ABF4447BDF8E5533D96ED9C3D0C856E3D20780E3D694FCBBD1FB90BBD9BD3FD3A433295BD3B87B83D8EC0FC3C76FB32BD45D2DCBB2DBB883D1B957D3D1A0052BDFDE85A3DE6690FBDBBD7493DBC44AA3C390E35BDE85332BD656DDDBC3BEC773D8F18ADBDF8EE783DCBCA0B3D7C79003DAFE9C23C3F7955BD16B3ECBCDA80D7BDFC98D7BDB71D73BC651A3D3C860AAFBAC2479D3DF959943D284259BDE37EED3C15DACDBC951EB6BD6F2A983D35C6E2BD57A2A6BC0D8F69BD8160233DD0CE883DF7987BBCF468383C164973BD34E5F93CA2E2B03C58EB81BDE7E6843D75C7C53D656ABA3C1FE866BD8E715BBAFBDECCBCB9A817BD9FC170BCB041893C8056B6B976E14A3CD025823D0BDC373C65040EBDEF1BF33C65A2A03D36C4C13CD3C0AEBDC759E9BC17507CBD1CAA03BD7355D7BA6785143D07B0F63C8FA78DBD88F69E3DF616393CE7F8893D1E079E3D1D8447BD4C51CE3DB2FF5CBDAD18873C4C6A203DBC5A1F3D63ED103DB639553A05B537BA29D7DD3D7FB70D3DC55481BCA788F33C70C3B9BDE658973CD9519F3C5082D53D41069EBC0E8D12BB859AD0BC109C493CF83A273C87BC9DBDC6D3A2BBF9F8D6BAA01354BD278B8DBD5C4F85BCA1C58B3C11727F3C16FD90BC04973CBD33F243BD9FD34F3B68B35E3D242264BDD4F105BD50C655BD31CE5F3D4806373BE28D0BBDF7BF83BCC66C99BB4CE52FBB65E929BD6D0B07BDFCAB1A3C8A7282BDB4B680BD0FA1FDBCB60082BC7F802A3D48E53B3CC1458A3D49A829BD53CA623DDD42BABD9A2598BDA617833BE8A30BBDEE54DC3D36AD6A3C079F72BD5F8C043DD9BB81BC5DACB73CF0C08C3D5338603D216B133DB168233DFCCBB3BBD3F6A43C490D23BC7212DA3D556FEE3C27E19BBDD878843D9D6BA23DE90CA23CE031403D4B2110BCC6563E3DA4EFFDBC8E893CBD7A653E3DBF840BBCEFB32DBA858807BD83EC96BD173618BD4C1A55BD99FD913DA814003C0484D23B3FB795BC531D233D07A4B6BC90DCE9BCC00342BC20C58FBD49F87E3D5EEB503D838F9FBD5CCD82BC01AD873DDC2AB33B0B5F873DD2AA9CBDD9D8B43C8EA89CBC4D43B1BC3DD5443D368385BDA7BB50BDC45B163D1D1BAD3C4D9ECABC316E363C302AD0BBB6A287BCB73305BDC736FF3BD6F6DABD32046A3DC33E843C17FB3E3D3F8B5F3CAFC7E23B609F26BDED38D6BC3A8EFA3C4C2F283D611A4F39E768D9BDAC29663D59A5973CD055583C68C0D83BCA5C7E3D3622AD3D5CC7E8BC80E10C3CD9AE793D5111A53DDE4BF4BB8468FDBCBC88463D73DE6EBCDAFDF1BC58E9DF3D74952B3CD0D62DBB5651CDBC9E1939BD95E1163C17B27EBD82EE583D2B1E64BCADA8EABB6C64A5BA225E54BD7733533DA9EE98BD8E7EAC3C1ECA583D62D340BDB43344BD4A239A3C9FC8A8BB744B4E3DCF00FCBC2680873D4030E4BC106B7D3D95171DBD6D1924BBF9A20D3D4EA923BD1150073C10F7B13DD0BEDC3C031C30BD06077A3D416DA53D0BE49D3DC613B5B9E6091D3BEE9F79BDEA458D3D70BA56BCDE22993D16E4883DE750943D1C67E93DD1833F3D4FA27BBDDAEC0C3D7F63383D0547A0BDC50C613D1B6EACBDED9F9FBCAE55963D15A092BCB470CBBC14C96A3D154088BCD16215BCB68023BD26022BBD101F36BD44C7ECBCEC71CCBC3C56BDBBCB8CCF3D2A3F2E3BF004A43C3BD0953B8E5B753DB041E43CCE49F53CD378103D0F210DBC2608DBBCB2B4F13A054B873CBE43FFBC3B9F82BCFD2E443D91C68FBC97FEC23D40F160BD3B3FBB3D7EEEB9BD58A24DBCB6411DBCC797323D984D263C5513A6BDBFC56BBD4813D93C351568BDFCF275BDF3312DBDAC66653DCCA7633D49269DBCF5D60E3DDD0614BD7EDC23BD40B7A3BC228B773D49A999BDC9ABB7BAA3BAAD3BAA8E3DBD59677D3D5715773DC37D55BDE6ABC03C71982B3DEC8C103D65C768BD8BE763BCBDA00F3D57917E3C240BAABC75070CBD95A7153DFA1574BCA861003DBD658BBCC7E426BDBB2A2ABD377EFABC66CDCDBD57E034BD0AD92E3DD725103DE8CEAE3D282491BCD6DEB33C2050C5BD1F5ECABD3E26B53CCC8A30BC40F3863CB093183D52113FBD0D7BE9BDFB0B2ABDE50914BD59EC8BBB7E6D5DBDFF7E13BD25B4353D9360B43CF3FB4B3D755254BD4CA2013CDB4C51BD6DABC4BB2A81413DDC33463DDAD438BCB0A0933B21BD8E3C0244973C5C675A3DA90369BCA2B6743B270695BDB4D3E4BCA88B2DBD3CC7AF3DDCE79C3D4C02B8BD0BCE82BD46E9D2BAE942AFBD9E263E3CEC1E323D330CB23DF2CC10BCB78B933DF518D73AEFB0B23CC13ABF3BA1070ABC0D4785BC718919BDD544563DF3BA883C16F7C63D01EAD7BC27A1D73DFCC6533C03BFD33BFD884E3DAB880FBC3F08463CDC2D52BC5F00973CAE75CB3D049176BDAAF98D3C32535CBD2E8294BB87CA8DBD3FE7143D6B233A3CDF9E98BCBAC4C63B35D90B3DE4D0593CB61A77BD59E156BDFE79F0BC1904D73C4C66CBBD5B2A463C96F6B6BCD5C12D3C9B830C3DEA1995BC49051C3D3C42583C68CCDB3D1AC2B83D86AC7A3D22C2473CDEF4A53C76375F3C1E21A73AD2C58BBD7488063DD4790BBDEE82AABBC7B95B3DB98D4DBCBF8D23BC810C623D1476513DB19A03BCD31979BDA41FB83CFB0DB1BD501F323DF2DB71BD5FEB813DB5A47A3C935E333DC21E8CBD7A3395BC6E4CA5BC3DCD433DF4688ABD5FE0B83C8AAAD23A0D33493DF591ADBCC880DABCBEAC913DBAAD92BCA1EA42BC633CCDBD14E2C7BCF069943C56AC8CBD5C679A3D24FC793D20ED7DBBB0EC23BBBF201EBDAFB7693D51A0583C6FD6773D7D3D933DB1C5C8BC1C2F74BC238B1DBC36461DBD5D8131BDE1E094BCE85F80BC93C67B3C05FA80BDA36BCCBD7DC6C53DE3B3C93B68DB6ABD618A883D995A7A3DC8B3B7BC8902E13D4CE7CEBD1448913D45C28D3D713BBFBDB96C06BD6FCBE0BCE00FDFBC52B2A5BDD0C7C5BDC106483D07D6203DFA323DBDB8F7A7BDBB811CBD3BB0F3BC8223793D0C3A04BC93C3133DD789E7B9F1E02ABD39ED80BD6C11FA3C70CB8B3DC7D275BCA746FEBBD0581CBCD8A93BBDB0DC37BD93E5ADBDB618713DD2E486BC8D33893BE77EEB3CC9B33DBD1B57A0BD07989EBD2ED58D3D464D783DC09DA5BDA6E7F0BB2EF95A3D649858BDC033AB3C557E953A2CE3AA3D5708E53B0072BABD852718BD012933BC51B851BD77B9B3BD55B0EFBAF951B93CCAB4A33D216EAF3C0447C13D72B11CBCCC83A8BC773365BDD3F6523D1A83083D3C3EA73D1B4B9A3A23F690BD589C76BDAE3C59BD47F75FBDDF7EA2BC0A135CBCB83A79BD17886BBCEE66D13CA90892BCB084FDBBF88285BDE826533D0CC6F5BCCB16BEBD588E4B3CDF1456BD10C1833DBD5C8DBD202ED03C45667E3CC6C4073D40541EBCE7620D3D01AFD1BDFC9DCEBC40F73D3C04ED943C428D963AA157933C79F1473D2A36A43B69D37EBC72A6863D1A0E5E3D712036BC2281F0BC89EE583B981A30BDB51BD9BCB6F964BDB47416BD146DEB3C8DD8A1BC2A4E063D4FED05BD1922C3BD5FA470BD506ABC3D722E8BBD2763E3BBE7036BBDBFBAA1BDAE529A3CF2E3AABC76DAA63DCC501F3DC4B4173DCA4E2A3DF7A7F93C59ADCDBDBCEC2C3DFF835CBD67407A3DA54E58BDBED349BDC7A1B93DB53FEB3CA038A23D14F5A33C506B513D1B9BC03CF55A323D21F3FBBC7ACD1B3B05EF89BDA95FE13BAE0EBF3C7C893E3D78E4BC3D32A33EBD6FA1843D2F8D2E3D3D586FBB2042BF3B63435F3C821391BD0761293DD049B1BCE52F5CBD700CDD3D2AA0C03D5616BFBC6D149A3DD0C6813DC5C9743C1AF25CBD4E2E7CBC034795BC37EA2E3B5F6F1C3B4BF990BD9E31A03DC8D8043C8232DCBB6078AF3B2A6C0ABD8436E1BD2FC334BC7CFED4BDF82AE63D598F02BC30E839BD5166A6BD579CBD3C0AE26D3B5368BC3D700CBFBCC3CEB13B749233BDEB3763BC9AFB9BBC831385BD598FE0BC1BE799BCDD4E79BD1A8BC23DB17E82BDCD2877BD1C9AA83C932C653D3023683D047978BC8C5E0DBDA2A6363D8D60483C53141ABD66B7BA3C6576193D6C90973BF1C8DC3DB01C8F3DF1810B3D7E83B23DDC9A98BD2998B4BC57600FBC27B88D3DF7CB3C3D2A1622BD9CB9C4BCB4A013BD128A89BD0C8917BDAD86B43C045FAFBD876B5DBCACC63F3D8034003D4A50013DA25F343D50146DBD483297BD2965D2BDBF82CD3CA6F137BD78F0723D12BF98BDD64AB5BACC53883D7D7201B9D4157C3D31BB693DDAF0CA3DD7EA4BBCC877863D57CD6E3DE4D3FBBCCB2936BC89876A3B9483DA3B8DE58A3DE16D473D90EB423DF05E7D3DDCB958BCFE76D93C715F3ABD54A80ABC07180ABDC935DDBC907942BDEFE8C5BDDBA6A9BDD921BBBD15948BBD43A2A3BDCA75803D6913A7BC8830903C5198AFBCE4FD13BDE7DD0D3D203065BCF8910B3CEACD12BDAA88E7BC882080BCE1E1BF3CDFF817BDD2BC24BD91426CBDE22D1C3DA5CA5BBDE4299BBD7EF615BDCED7633D73E9283DFEF8FC3BC096873C90C43A3DC06BC3BC11D008BD4E6236BCA76E823C301C663D86D97E3DE0D0E2BCD42B5F3DC0C2623CCE524E3CAF43D53B318E873D4B238EBD23C2B93CAFD48BBA9A96AABD04033D3D5A3192BBC3288CBDC07C123DDB1F4D3D5C6D143D5DB03FBD78AED03C73F0E6BC96187EBD998424BD6EE0B93DEC04943D18A093BCB9280ABC6E394D3D9DBF9ABDF3735A3B1E95553C2706BD3D38A33CBC2B2E6DBD3AEA81BD4E416B3D786B823BD6809BBDCDF04DBC87ECCBBCC933673CC15D1C3DB23A29BDB129D9BDD1B4BABD14AB1E3DAB1FC1BDA30FBC3DD13B6B3D36472BBD1435FD3C3B6292BC8F20873D624234BDEBE0ACBC8B690D3CA6D3DFBD6D6A753D40F129BCAFE2E8BC763250BD8721E83C4FCABC3DDA1C383DFA736A3C0ADE73BBEA6A92BDFFBD31BCCA849EBD8F4337BB37F4383D763F08BD195AE9BCA083FBBCC003233C477595BDC46308BD12ABA93DAC450ABDE6F14E3C8EF716BD95C0833C05BB353D225819BD30C9A53D8E4C9EBDF40444BDD706A43CB7EF483C0D7594BD93C235BDE40A453D6722CD3C5F581FBCA3162ABDFE66DE3C2131AB3BE6A47CBCB54E4A3DF4A62CBD64E811BC82C970BCE7519EBDD87F933BF17CD73CF8736C3CEA2B8CBC2F3489BB0E7FC8BD7B87BCBD90FDFC3BA9296A3CE743663D975F61BDC1C007BD4C94AEBC31691CBD058AD83C8A1F783B4CC884BD194989BBBAA2153C744C873B36729F3C875A0E3B691280BD64A3093D4576323DA5391E3D9567933C481DB1BC0763E2BDF226813C957E41BCE40BDC3D929798BC4D28F3BBAE94713D59C081BDDF3E8B3DBA06833CE897B23C38ED883D4578963D36F4193BEFBD413DBC1119BD4B64CCBA8FC5A0BC86E148BC088C053BFE3346BD0199E4BBA2ED4FBDB41027BD8AF5453D622E16BCD02CE6BC0E0997BDF3B2373D766D043D8C3DC33DA01D1DBD5BBE293DC058DE3C3372D6BCAD42B6BD3EB6EA3B52A3983C078224BCE1B2053DF7443BBD197058BD38D649BD786E773D2069BA3D08C8C6BA1525B33D11B1533C6A1FEF3CF7EF333CF5AF423D1D69A63DA735903DF45CB73C2623613D713588BDDAC6833CA46EC33D023FAABC17DF1E3D297412BD9EEF93BDDE1259BD19ED54BD30F80CBC8509303D620D443D1BD31F3D0308693D9E4FBE3CB9651ABDCBD6C93DB883E03C68E3B7BD6738ECBCFA52A7BD065F6C3DF9B8BCBC39C0C5BC2B378ABBF6931A3D5F5E16BD608A683D96F97B3C0AD707BD547C9E3C4BFC4C3CE41671BD22F5DB3C1D43303D1965FE3CCB581B3DED53E5BDA7C2053C968FF13B18F765BD75A4223C7391BB3DA0FD8F3DC7CEC3BC94CC833C62C7843D24752B3DFF579EBA23B3D43C063D38BDE4AB8C3D3248F33CE84DC2BDCE8947BDDF6D643CA832CCBD442A933B73F69CBCF349003D90F14F3D99AA48BD457B3C3CB03007BD43812D3D297DCF3C5FDFDDBC735D9B3D233F143C775E893C940FE13DE61F7DBD64FBA5BD0ED98C3D6E6971BDA859C8BDE7F0633C0DD2153D3AF34C3DDCC13B3D3411D13C56F58A3D0A4A14BC109C463D15E392BC7D6B1DBDB8372C3CF87AAF3D9C8ABEBC34BF7A3DB9B195BDC7065ABD3A8C75BCFE8DACBDAC35483B22DE65BD29F6F13C8379B23C74A1EF3BB9B315BC25C41CBBA825C03D479F17BD697BD83DB7214FBC630E5ABC25C381BCF624F23CDCFD63BD75F1993CF83052BD442558BD062427BD31627C3DF7697A3DD801A6BD961EF43AFCAC1A3D6BA1483CFED7A1BC002D5CBDB877FABCD379173D73777E3C33AE27BDCE959B3C2F4A403C13E0523D4FBB223D7630463D61B31C3D88922C3D500675BD8642693D9CA5963CE1EB4FBC500A82BCD91E943B03DA06BD32DFCDBDD8501E3D2F8D063DB00334BD5A59543D82D7A43774D12BBC838935BD6A929B3C06C510BD9B99303C0D4EE23B10829EBCF026D13C628ECCBC0511193D8B9651BBD81D903CDCAD643D6C34D83D8989833DD6B21ABDF0DDB03BE812A93C941D8B3DDB4F26BC9DBE263D3EA3C63C0C93E3BA26917D3D96A0D43D64122DBC4D49563DC936B4BB6987573CA6EE94BBD95ECEBD68C633BCC4CB1ABD2BE5BDBC15CEEE3CBDED2BBDC7C763BD869773BD7B2E35BC1F2B393D79F01B3D035FDC3C4C54483D3A5794BC52A2863D39994F3D3D5545BC820B69BCC81713BC30A332BDBB0DD8BB6D50FBBC720EBDBDB883C3BD2F759D3BD0C413BDB3A993B90F150F3C7FCFAFBDEA29CEBD11F3913DAC3549BD1D0F89BDE80048BD058FF6BCC74E10BDB84054BD0C31A3BCA911A0BC30826EBD02E295BDD88067BD6230083C1362493DDC9CACBDB0D974BC64C453BD5BBE453D0098943C8287F83A0800A7BC1D078D3D5C62E5BB8865F1BB0E96443D2458D5BCA547A33DEB0BCF3BBBEC4F3D9AE4D03DD3AD033AF4F9CD3D043D15BD2C9E923DCDD3E3BDF516833CCDC13EBD9995B3BDA83C963DBD159FBDB8AACCBC00A2883D74AB6EBCB012053CB9280ABDCC86D3BC6784E4BC5A87423D67F412BCED7278BCCD2F443D19C0BA3A471602BD5C78A8BDCDAC063DBFCFA6BD17013C3D3859163D7B9B0D3CEC216BBDA11AEFBC952A093D229C3C3D40AB233C4A803ABDF60E96BD8BE706BD0F59573BD733203C5BD9BCBC844E2F3D6AB8B1BDEA27FB3CC1CA1E3B4BC03BBDD47C2BBD51BD80BD3191093DBD62343D7CB6E4BC15A4963C3DF6603DA0F45B3D1ACF26BD75B347BD0A222A3D5305593D1EED3B3B4D583A3DC0D2653B0464FDBC2B42C8BC96263EBD01009FBCC20B55BDA9FF23BDCFAA5F3D0CE1DF3C5CF1B6BB19B2AF3CDE1C1D3DBD8D7E3C20548D3CBA4143BDEF7D1EBD28BED43B2B6CAABCEAB9883C58DA82BD24720ABD127203BCE3BB493B3C5247BC4416173D6502B9BC16E4243D7158033C0B125D3DD67CBEBD85478E3DF5778CBB26217A3D27620F3D0443E2BD1F9B023DB674393C1A0580BC0AD0ACBD3EBBD53C63EB003DCD208CBDCDD8BBBC983A13BBF12B863D7264833C4C4B57BD3809AC3DC27CB1BBB3F495BC4FD175BD318CA43DA6039D3DEE9960BB3EA9F2BC87D0083D135BFDBB8D5E0CBD6821A43D8992DDBAD9917BBC75BEC33DC56F823D6462963DD61D10BCE88B4F3DAB5A7C3D168139BA6E17833DFFC1053DED9FC4BB030BA1BCFFCCB9BD0F486ABA5CC98EBB562B973BFB0A043D6A8D993C25F2B53C7A84BBBC3328283D9F58023D1D4AE6B8911E273C5F1A583D29F9823DD0A8423C08D83F3DB4A0F1BB579006BDF93B553C12BE5E3D999890BC6E37AEBDA486783D974D3BBDB4FABD3C10934C3D9B0D7B3D64902FBDCD048FBC87925CBC0A0528BDC1D5BCBD72FA1DBC86B01E3C10352D3D0B5C023D6E3EE9BAA8F76ABC55963B3CB079A03DD459403C3ECC45BDB8CB85BDFD869F3CE2C1563DF8D548BD446EA5BD26AC25BCC1B5133D2EA2DCBBDA12323D67B4BBBD00A3233C5C29983CC5672CBC4E580A3DC113E4BB159167BDBC53C73C2BE964BBA5652E3D1009B0BD883EFD3CC692363DD3E2833C4259C9BD65F735BDE859973DF8C2DBBCA7C707BDBE0E9D3DC186993D0D2AC53DC348893C4A339E3CB8FF0F3D2EB98F3D492FF9BB5CE04E3C461521BDB269DA3CCD586E3DB4696EBDCFA8BC3DF5EC56BD5DAC02BB9A0E3A3D307C9EBD47D4933DA5795A3DB369043DA0718FBB568797BD43DB9BBD405C68BC7680163D796BE23D191B41BC44491ABD890065BCFE5F073DC2932A3D7B0C54BDF0ED143DB80FC33D0188F3BC312A2CBC34548A3DE7583DBC959C243DA43668BCC393243CED8783BC8755E4BC1377F9BB7A5497BD211B913C86F2CEBD96F330BCAF8144BB91B44E3D0FEFC73C13999DBC391AAC3C4F9E38BD1132C23DFB29623D426DBD3719DA463DE38A123D108273BD6F65BEBC3245BA3D7D8313BD00978B3D7DAD19BDDE950A3D138020BD958DE3BCFCDBAD3CEFE7E53C94FB3DBD255FD2BDADC288BD7438A7BDAC0AB33CBEEA81BDA1E6C1BDEECA103D3E3A15BD40AD983DB2C7113C6A8DCA3C9FECA9BC46C6A83C0434A33C9100C73CCBD5CBBDF03DEC3CFD759CBD6A35683C4AD6C13D771C683D1D4D29BDC0EAE6B9D752B33C0B18CFBB490E3C3D78B007BDD5F36E3D77343DBC1778CEBDA121533D466136BD945B33BD418BDD3D3E2B3CBB74E2A8BCB918353B5572903D88036A3C076EE33C6D8E93BD5D7417BD74CA2D3DE5612BBD8760773A6662A33CBE8AE53BE96DC93DDE0337BD4BB0673D58EAB93DF666623D34A4E1BC87D7BDBDA0A856BD2B6DC73C2C6080BDC458D53DFD9D68BDF275DCBCB43DA93B7524DA3CAEAF5E3C7065263C6CA9983C62C0ACBD7D5A2BBD8A0EA0BD0DF263BDAC0272BB1D3B2C3D5BBC32BDBD23C13DCBDD7A3DBB1F5ABD17B1BC3B08E0D1BC1F17603BE87D0F3DD62BA33D0BD16CBD56C983BD458A46BDBF52C2BCB575C23DE862203D15B7433D2A0E923C1D0A97BDD94C1FBDB731A63BD58A30BD912F073C41868A3DB0613E3D7A4D23BC175D9A3DADA94D3D5BA74F3D595DC1BDF410A0BD8DEEDEBD92782A3D38F5C43C0F4FCD3C45233F3D2975C63B12C9E7BC32B28C3C0CF28A3DC12E753D70F1723D4FAE2FBD394C9BBD7DE3E8BC72C0C2BDE3A183BD5F38DD3DCCB3D13CDCDD97BC4994883DBCD6B2BD6D09F33C4AB3C93DD42D45BD3D4E8C3C7FC2433DA887823D939C4ABD6DBBC2BD81092EBD4D6FC83D3B8BE0BB7C1B1CBCB72FECBC5F546FBDCB042E3D0A0319BD8CB5473C0CE10B3DAACBD03DBD29D6BBBFFE403C58A5473C8D3494BC9631B9BC13B7C73C29558D3DD5AFE9BD00FAAC3DA0EFC33CEC52AD3C0D3963BC71E21A3BAB91173C91C335BC8AC9A1BD1B54C0BC40AC643DECA2E2BB5D4E023D76B2943D7DFBAF3CF8EE053CF1BB953D65388A3DC796DEBD7542043D80A985BC7A93D53D42C061BD4E037E3DB0D61ABCFBD31DBD56DE4CBDA260BCBB31E2E2BCD298BEBD7DC1F43C5A885CBD65807EBCB06819BD43BC17BCB069423D8BE512BBDB73863D1CF2063D71B185BDA4F9853DC3521E3D4BE53D3DF6EDA2BDAE90C3BC5B7E8F3DD18458BCD2A2C3BC25A3A6BD298CAA3C9A63AD3DE6529B3CCB9C78BB24384E39015E3D3CEFCE3BBC706A283D40AE77BD0EFAC83CECCB303D1A36613BE371CCBDC4A6C23A21271CBDC183D13AF6CBB8BC8E5A46BDFB0743BDAE20573D550A8B3CC4D522BDF196243D74DB283CF4793E3DE0B6E83D590FBA3C7BFB323C7F79C3BD8B41713C28A093BD765D033C7DC890BD8F80123BE70E133DDCCCB13BD80D113D695A633CF9BBD63DF4B201BCE57B8C3D103BD1BB707B58BC7956813D142B9A3B937C71BD790DBC3DE4F5C9BC179D55BBE894983D958644BDF458E5BC283E84BD9F05D43DD870CC3C731F8FBC8EF5A73D10579A3A9D00203A301E24BD3DF71BBBF154343DD099ABBD9C4E5F3D62BB813C05BECC3C687CDE3C72015BBD52B186BD66EA743D84996FBD3A838E3D760178BD6CBD8E3D19F18EBD9F7281BB16B32ABDCA7F1FBD8F408EBDDDD7993D0A5BC3BD56F49A3D983064BBC129AC3D737109BDC980E43D5C5853BD3D8437BC311E00BC484C923A2CD91E3D84166C3D474C33BCE22ACC3C8BA226BC1EBFC13D4C0B793B0962193C108DA7BAC1493CBDAF902BBC7DE14E3D28A9F9BB4285803C9E47323DCD4BFDBC29087FBD6D2D68BCF55EBF3C6447C8BD7749AD3DFBF023B900278F3DBA47BC3CAF8E9FBD1FF8EB3B551CFD3CB4BBF43C50DBBBB91362CEBBF792073CB0920F3D8793E7BD2A8EC9BCFD9B843D5A2A953C1D26B4BD3285033DFCAE45BC330C1C3D0D6C003DEAA308BD4816073DA3A0A7BD131B553D5782653D9F28A3BC186700BD7B0D503D584038BCF16DBCBD2EC38BBDE43A233DDF32ADBC2CFCF2BC1120F6BAA09BF4BC3407D4BDC147443D30AAEBBC06FB8FBD038295BDE89A063D6C4E873D852ED1BDCE32043D31BF2F3D8DC789BCADDDE5BDB068933DD83983BC8C0E0CBD38EAC73D4B9C57BD64179A396F1F583BDF9F853D973D2A3C7DEE63BDF147D83CD969A1BD7E56A8BD1152713A9E9AF53CCB60F4BC75FED9BAFDDD73BBE1DC2D3CEE79F6BCE3F5B73CA25EA0BDC5F98B3DBE4400BA5704AC3C3B99E43C160042BDAE9D713BD0356EBD2B05A33D2D8E293D847C43BDD73D21BC947AB8BD61549E3DFCD6183DC81A483D5E1B15BCE97A9B3DF03CC0BBA957DDBDE84A963DC468CEBB9FC248BD7DD4D4BD6126913CD87EC93CEBD2863D2DBE8F3DAB6A6F3CBB9DD0BB1D779E3D95414DBD1F0ACCBC04B5D3BCE646EFBC5F5A25BCFF5DA53C6AF4733D737D06BD2719B23D519BD93D32F1DC3C2E1D75BC4812333DEBC634BD9FF65DBDB8F4D83D87FAED3CC972403DD1DC85BCE06B0ABD8F84653B28D05DBD2CC4C9BC3DA561BDE978D5BDB301723C52BE203CB157F63C429CBABA4B7A0A3DB19EAC3D0FD8E23C7FDBB43D023B703D6F520ABD6CD9663CB201D53D3328973CAB299B3D95C34D3DA123553D7A304A3C4794A4BA0D9F723DFFBE793D31D90ABD5DD9A73DA8100ABC7CBE643DB867AF398356BFBD01F49D3D25F19B3D04CD24BD524EDDBC6F4C9C3BAB65843D3673933DB44C9CBD0EF473BDEF834ABDB34743BDC669A0BC7E7CB53D027F763C3564AA3DD40B7DBDBF3E143D36ED1B3D4C4E573D3B1190BC9BE4413DB6D032BD9E68DC3DB62C493D4FC94FBD04C668BD4D10C43D5E4605BB2E15B7BDAFDACBBC1414A3BDB66C963B3BE89C3D665E4F3D0B24C33D890F3F3D2C2023BC344FDBBAFD38303BBF6AD63CF2381F3DCEC9CABC1885323DDE0C3F3CC7F8D6BC18C8E7BD3EA2513D8EB0513DEA23553DE906D33CEAF977BD63F5B63C1F9E7FBDB7C7A3BBC54B88BD27AC86BDAFA1C7BC274FE33C99FCBBBC3056643C07D19B3C5ECDDABB8853843DFAE1CFBB0732533C4415EF3ACA4B8ABD9D17883DECDF2DBDA8CB2C3DD3D69DBDDC738B3BCE8E853D2C1D093D557DE63D9B17CFBD9992B4BD56CA42BC107AFE3C95143C3D2066053C6817813DC477C33CCABDF23C9A7334BD5628043D1D4E823DD7983B3DBFBA24BDCA94103DADA34EBD6475B4BBB1182EBC508735BDF00E2B3CD46EA73D45799DBD6517AC3DD3B0C1BCE9C9B73DD6C4443D2AA60ABD24A9A13C048ED2BCC114E5BB0EE16BBB5B7CB6BDEF17963C887C0DBD6491803DC0420DBD922BBEBCEE1A453DD066A8BD5EF6A7BD0A2EA5BDA6A890BCDA2051BC8FC0ED38D38A0F3D9DA315BDE1B44C3D0065BDBDBD358C3DF2E55A3D169195BD83D067BC9810B6BB044818BD28DB2D3DA9DD29BD241784BBB2D26E3D6E99AF3C50A443BDBF417BBDCF43223CBD0920BD5BC07D3DEB649DBDCDFA343C8D3F8A3D4475613D025BAEBDE8E59D3C8B2199BC34A6D5BCB8C15ABD306BF03B9EC27EBD760CC4BCB811823DD82C7D3D6B4AEBBC0D2658BCD78095BC9D0AA6BD2EEE36BD2AA2A83D99F570BBFD64BCBD213BB3BD654D31BC7BD3993CDE1D86BC828EB6BB270551BD5688A6BC0F4E9F3D8528923D17AF4A3D2FB8C9BC7C8A0D3D0BB58C3D6C7DB13DAAC7523D9B7887BD6BE489BBEE1AD8BC688872BD7AB8173DBF71B33CC9CE53BDC18582BDE4B188BDBDE098BD4596C8BDAF14D73B47A987BDD3E303BCDB0F763D91065ABD441B4F3D5E12953C5C989B3D44B0353DE3B8C2BC5195673C5B458EBD8A95683B14583CBC40D4A2BB9DFF843D79935DBD6B38D9BC95A9763DCACBABBD14F342BD14069C3D17D632BDB28D2C3CC5F05FBA17D844BBE5F48BBCAB3F2CBD2A054EBDC519AD3DBAF3B93D490C8E3DA759203C8BBB823CF4318DBD2E9D483D84A90E3D6F4C013D5B690D3DC7D591BB5E9925BD7056063BA0A7DCBC2FCB253C2672C13D86F4793D38886BBC6E8825BCE41313BDE6F4E53D3641CB3B93AF85BDABE9ABBB71B6C83DFA26003DD12682BDFD6AD53C521D43BDC2E87C3C834A3D3CABC560BDDB1AD5BDA555BF3C879C693D2B81C9BC87A7A6BBADBA22BB96C924BCFB677F3DEA81B03D09C9DB3D2EA801BDC04107BCE63A633DBFA337BC686D2C3C74F8CC3903847D3D38E118BDEBA996BBA6AA2ABC322CE93DB672713DE3EE383D95B194BD6564943CF2BCB33D1C9C72BD9494AE3DD99E103DEE765EBD064CE7BCB0C8933D24A1E0BC68A3B23C0857B63C3DCE4F3D3618953D918584BCC477373CC5291EBBC1C9E23DE93768BC297738BD2199A0BD348FB8BD5A5AE7BCE9ABB73D1C7998BD3A93D03DBA28ACBC9DB5E8BD09B469BD854491BDE290223D7BC6C6BD333327BD7E8B7EBDB26B523A4925ED3C41E7293C5B3E213D141F4EBCE769BFBC07D25BBD1171AB3DEC7269BDCB7AC8BCF050FE3C5AA09D3CB129A4BD8EA913BD9521CF3C0A67813CC2A89D3A5C4631BD84D077BD55EFA6BBA76C19BCEEB39ABCE8CCD4BC4611F6BB9451FE3CEE6F193D35C2433D77E609BDA7915ABDD68E753D31B315BDB9E8993CFCF6823C2FCBF2BC856CAFBC530A3A3CE798673D87CA733C195CF7BB1C840A3DAE46D23D47E3D63CE2EA5EBD5341EB3C1F3A573D08679EBC9F10FCBB81E6563CA599283DC14552BD16F8B73B340AA03CCCF150BCE7481C3DA8B8E7BD46A64CBBCFF9823D66F6CB3DA0E49E3C6FC2313D89FD643D8E5D93BCEFDBC03C0AEE263B3602483D4F162ABDA9AA103C7939ABBCDBB0233D6E14F1BC868F11BD387EB03DDB9E1DBD493D583DBCF5B4BCC765373D5DC0AABCA7BC313D9F4A5EBDBD37133C689E283D0DF9213D4B145ABC5A2D42395DB0E4BB8C524DBD5693233DA23830BD149A38BC47F5F3BC4955803DC9275ABC721C673CB0506CBD584B9E3DE47C5BBDB1FEDBBD3509CA3BB5BCDFBC25F7AA3D8BB01CBC822AADBD2BFFE23D4FB800BDB7D6B03DCE490F3D63854BBDD8CDD7BD5E0DA1BCA7DC4D3D920AAC3DFDE4BEBDD84FB53C6FA8733D93BF443D284C2C3C334B943D55FC80BC40F7DCBB9F0BE43D77A40ABD1EEA47BAFEAA923BF44C803C9561B93DC84086BC681AA1BDFC068C3BBA6E06BD8BF04B3DE605C23B0CFD4D3C8E50A93DBF38E63DFE82CCBC1788BBBD710F803D2BEBD33CDF8AF5BC036182BBCFF597BD38A9913C70F344BD0DF181BD082B90BD8968183D9E23BCBBA6A68FBBEDA64C3CCC933B3D6BB13CBDED29E6BC8CE9323D378D79BB19B186BC9DA8D2BBC937FCBCF29579BCACC624BDCE312DBCB182C43DB9260EBD89A4833D6302973D3621E5BDE296CB3CC099263DB0EF8E3DE6F09FBC85AE7CBD9C3B943D6CD7043D56C28A3DEFBA16BD0954413DE0291C3D97D89F3DB365BBBC3E6407BD7D23BE3D10238CBD52E628BC37BF1D3D08C9843DC3F629BDA04787BDD3E79A3DCE8B5C3D08AA31BC73B281BC01C69C3DCF9F23BDBFF393BD0566173DD82B3ABD41C45ABD2CBB043D3C4B073DA128B13DA95940BD60EB813DC39FD3BD5169D83B948503BD7C9426BDF60E9CBBD37F0A3DDE8C843CB8F09D3C2AF7D63C398B12BC4116D8BD534004BDA06F84BDD0DFA0BCEBD9A03C013A2EBDC1A6563DAD90C13C7E1053BD0C4036BDFB7410BD31A40CBDF819EABC6ED838BDE0A1243D9620BB3C0FE703BD0AB1223C6E2ADFBD446F80BD65FE463DC5B1903D6B4098BBA4F9C4BD07CF7ABD29A17A3D414A533DB3F680BDBAF0B1BC359F693D8C61A5BD9D76A93CE5AE35BD0B554DBCF3A3D8BDEE3394BD2AFE153C236329BDB466FD3C34EE0EBD34248E3C0B48D23B5872213DB54B6D3C28DA8FBD43E4623C8C1B5F3DB14D2F3D09D138BD54865FBDDBB5A03CB6AC48BD16A688BB1F3AB23DB6ED583D23A5CEBD3FED7C3B0F51FE3AACC0893D33676E3C1FB9ABBB9E70C03D3B37433D177D9A3D8A746EBD7B99B83CC9AA0CBD6D13623CE134CC3D27C91F3D1BEC89BC6985D1BC5AC80CBCC774A1BD6076873D75A7523D438B283D7E6020BB122EAD3D74AB123D1E0D8E3D050D7BBDCC71D7BCDF64193D6A3FE03C7F0AF23C1E671B3DE528083D430AB3BBDC701E3C6DA1553D3902303D70858DBD6DD7C63D2B756B3C0A219C3D73A0A6BC2BE7A53DDC2D223D55591E3C158568BCD02472BA5601053DC4DE35BC762BC03DBFEC7ABA6F5872BDB6F58B3C7F55DFBB70D9B1BDE15A77BCB63EAA3DDBD9BE3C6AA2D4BC2D52753D7F9F6E3D994FCFBC6CDB803DB39D0EBD739D01BC58C8123D8C9A8FBD4407D33CCF044E3C9B00BABDD97B37BDEE7C66BC9E9E45BD3CB89EBDDA9C94BC287E0EBDFCD9ADBBC83B813B10BCF2BCF6F653BD4376EEBCDE7809BD02C4D0BBB291DA3C7078AFBD3A576A3C0DBAC3BD715509BD9C24C6BBDAAB033DC486093DBFEBBFBDD621EB3CBD7516BD2963843D1E0FB33B4B0C9FBB9135933D2A70853DE6897FBCD441433DFD1F0CBDB806B6BB977FBABC1ED0DE3CB272943C9B44A3BD8D5024BD6B19773D5CA683BD5627D83CA5BD3CBA0D19053CDEF7A7BCCC7C42BCEFB0C1BD48E4493D0EE708BDC71FA5BD4E37673DCFDE1B3C2AED6ABDDB77423D025F24BD6E2593BD95958F3C661C3E3CDC9079BD40DA42BD4F255DBDE484E73CBDB6833D072D4C3DB454983D260285BD0394E0BCD4D755BC4116823DED42073C12AF8E3C0A95B53C355ADF3CDD226ABC27B98EBC50F2EFBC1570C3BB70C0393B8B4FE0BBBCB99A3C1455ABBC06960DBD518DDCBD23CD0FBB714384BDA240013D0A0E733D790A8F3DEBBEA73D7B9B97BD4F39C9BCB8CF63BD5E0948BD76639D3D1D3C18BCFCCB4DBD7236FBBCF43DAB3C8AF96A3D51F8863C8272A13D5721B93D9338BEBC27BCAABC92D20DBD0FDEE23C60CFFFBC4B0398BDD88B88BBEC3ED3BBFF84F03C943D143DDB9E593D418B1D3CD8E438BAC54E123D3F6C3A3D72CB2CBDEBC9DB3C2E20823DF9FEAFBD581A523CB54AEE3C3A9CF93CB0D500BC13E7C5BD67B401BDFB67AA3B1DEE97BDEBFC65BDF04019BD694D01BD15C8323DAEEE853D85C81BBD166058BDE9D1143C33314A3DA309903C3AEEF7BCA5FA9C3D701B6A3D3708033DB858723DDCDA0CBD11041FBD7B2CD0BCF011A2BD1735D3BDB70A53BD0570943CBF7984BB3122C3BD987512BD427B153D909375BD311752BC5A093FBD4800F1BC4C27313D5381E13CE5324D3DD20E9ABDA72D523D5F6B3F3C07FBDBB9EBAA133D8672923DF615B8BD1B46E53D744A203D501DD03D106DC5BDBC8B74BC6CADADBD351356BCC6A9563D176AA4BD7E747ABCC229203DF5DF69BBFB674ABD7430EF3BF343163DDC4BAB3C59935FBBA38DD5BC7874CEBB3B8666BDC53CFABC8319ED3CF3EA023DE91846BC957BCA3C0D4AADBC5DE6AA3DD802833C0E94ED3CABC395BC4D979F3C2E67D5BD07B64ABD"> : tensor<784x10xf32> attributes {sym_visibility = "private"}
  flow.variable @"__iree_flow___sm_node20__model.layer-2.bias" dense<0.000000e+00> : tensor<10xf32> attributes {sym_visibility = "private"}
  flow.variable @"__iree_flow___sm_node25__model.layer-3.kernel" dense<"0x6E70F8BDB2B1D53DB44125BE4FCEA13D4E200D3E2BF646BE78B30BBE06CA8BBEF40A37BDD3B740BD95FAE2BDB05A763DFB7852BE2E62F43D7D4D82BE517DFF3DF385E9BC6E79F4BC9F956A3C107F873E0E12FEBC4D5478BDD081883E983D3FBE1534923DC744703EAA6C2FBE472C4ABE6581443D2DDB6D3DB30E943D1D71DCBD90561EBE909B47BECC3A413E04B0043EDA48A5BD0C6413BEE24519BDF88D4DBE2D7C62BC2D17053E0567E63C77FCB5BDEC4B48BD7C1CA9BD49F2053E41C89BBDF36E7B3C58E35BBE48B50DBDCF49613E29EB023DEEB6E3BD9B4D883D3D1D793E77F2C2BC6216C63C80DD6A3ECDD688BE09EC2C3E93C4083E782B7B3B7D59EABA3991993DC546AD3D72A60F3E6CBD9FBB2F5CCA3C0548B33D2C3019BECA82BEBDCA51E5BC0AC4393E464123BEF1D29B3DF3165B3D7D69953CCC1913BEBC9285BD3821193C702A1C3DD231A33D12B50CBEE3BB583D083D19BEC124CD3D6CDD10BEDB8C1EBEDE8D48BD8FFA84BDEEDD25BEDF08AB3C9E8D453EB2072CBE2E1F413D29B60A3D7AFE033E4BCDF5BC144D2ABD2AFF2D3EA983343D2EFF80BDB55D853E43C746BD503A96BDE950623D49E52C3EE8AD283EA9DE143D791E343D547F4EBE94D31FBE35041A3E5E659E3DF02E25BB33E378BC2D2ABA3AD3C5D4BD641CB5BD76116D3E1772193DB9A014BE40A6B0BDFC18D5BA4F7F63BE6E395CBED3F8113E97C62ABE464C613C01F6AFBDA6B264BE27CC8B3A2060063E8DC0EEBD8FA170BE45581E3E31CC41BEEB31473EEE18D63D651B36BE673FD8B8D86994BDCFCA4D3E4A0589BDC33D65BE8700073EA9E391BDCDE80FBD301218BEE101FA3D03968ABDE082C33CA37774BE6EC3B03CA1A5A73C229B0D3ED208FBBDC711573DEF01643E52D6EBBD2C0EEEBDDD586E3D3AA3163EDB56E53D4345CDBB922B06BE728386BE76E2C2BCCC764ABE618F79BD8B0D57BE052315BDDA8D313E5962063DAABE063C8D4D25BE9CF9D8BD82639C3C59660A3DB56602BE442CBE3C7B2A15BEEC99413E56276CBE5362D2BDF9C511BE1B0D11BE479B32BD296660BED584E8BC5B307FBC775873BE325F7EBD506E823DC34F8BBD0FE21DBEF67C893D63B4D43D52236BBE3BA2183D98CB66BD84CA683E816DE0BDA5168B3D7CBC5D3EB226B5BC39C89DBD2C1CA23D7F9472BC01AA08BE8FAD01BEB464B43C9081ACBD19A1843E2C6F21BDD975EA3DA6CDE4BCAF5B8A3DEB390EBDEA67EBBD8BE194BD06C68BBAAFAA7A3D4803693EF3C3C93DF8D3FCBD8FFAC2BD00BBBCBC04836D3D1148B93D212913BD801A4D3EFE35C7BC6B609F3DB15ADCBC71AD623CCABAC93D96817EBDF88E01BE4879DFBD9139773E9710133D5CF181BDA4C277BE3B7D513DD5AA48BED151F33DA39E67BEE7228C3E30651E3E14EE6EBD6871403E64244EBDFFC869BD8133033E9366EE3C0DC5CCBA111ECA3CD843C13D5E6385BD11F7A5BC8527563D911C7E3B14FD5ABEDF975EBD2F4B80BD1070A8BC3756BD3DF766403E8CE6173E876C9BBCD1691F3E687E8CBD052F31BC3924653E5017263D195B7D3E556C8B3DD0A4F73D7550BABDCEC3713DB40153BE8826863E02E540BD483276BD5605E7BDD2F6CE3D7FD2723D3B317FBBD163D63D2080CB3D0292C83D037FC7BD57E2ACBD3B3FB43DB6E20C3EF3475BBEE75559BD8A4F493E3F76A0BDE246DBBD70D1B1BD74D405BE5BA3883DE92E50BD858730BD7676873DD6CEDE3D83D98ABE4368783E13BC75BED48C4C3DA3C0613D49D0293D6BC1CDBDFE23B8BDFA82093AE5E358BED400843E56EB273E4A532C3E5FB62CBED41056BEF1542E3E5AEE323E591190BD600CA1BD3DF687BED7654D3E0F63E8BDE40C953DF25433BE3615B23DBC13063E510BC93C5B38A23C3E5FCCBDFA28723C6FF42C3E8A81873DEA188DBCD63ECFBCE81E3DBDA5C46C3DA498863B77DAD9BBD228DB3DA9FCBCBDE40736BEC6EBB13D902BFB3CCC94BE3C04FAE5BDA788FEBDC0531B3C00AD503EFE848B3E5A47993DB5C217BE3DE9503D6AE7F5BD5AAB1A3E60322C3DFB3408BDF7AB213E4CBE863D4D81A33DC369B73D04F0D83D234DD6BD12D20DBD977B3A3D1EB70E3EC55C533EAFAAF1BC968B90BD260A623ED2A1C73B8B62553C1D40713DDD10E5BD3C6DF1BDCB8B0E3EEB274BBD6D24743C200189BDE200973BB386A6BDF82EBB3D17663FBE496788BD0345F43D17F836BD6DAC5F3D1E0E2EBE52D02C3DF05CAD3CFF736F3DCC99033CCD8E54BD69047F3DF318A53DBB517BBED853B43D918B1BBE7397463C02629CBD2439E73D6EBFF2BDBD22853EBB1972BE5245D13D5647AB3C6652933D2EB0B63DC23A603D330F9EBD7AF206BDACC21C3EC6400FBE2438803DA4EA3C3E5608BBBB10F7103EC38C9ABD7E0953BC2BEE52BE7522003D361BD63C1FD008BEFED2393D09EAEA3CCB29653D897DC7BD198E88BD21CFB93D465F0FBE32888C3D1B89DA3DAB404F3D886C5F3EB04328BE842D723B660BC4BCB670E6BD87BD89BD49D2873DE861FC3DCE903A3ECCEFA7BC183AA53DDFB5373D6245953DA0CAA23D39AC823D0ABF16BED3D980BD3D84523D54B751BDF181243D1D196DBE1FD022BD0EEE103D0594213C71D408BE0A9657BD8D6BFC3D2B42ABBD4E2681BDFFD15FBE6837023EBEB268BDD638DD3C947D39BEECE211BE7949EDBDE1A94CBD729E563DE00C17BC1C61443EEE37693E32909BBD995AE83D5BC541BDC9A66A3D799804BE73DA15BEA51E823D05C3D33D6EC965BE75F3023EFE4110BEAC2A823BDF46003EAC03323E5E0F3E3E81079BBD6376C73C719E1EBE9293063D2C0B60BD4AF3233D146E763D63CC4F3C53B16BBD9026633DAD990C38988AB2BD156A25BE503C5EBEE20C623D018B273EA783AC3DD180273DC4A2CEBD275806BEEB460C3D518C253E4BFF7E3D7BA405BC7CD7323E52FA463E9650A7BD8F9781BEC7CA1D3E45042BBDEB115ABE56FC1D3EA7C7713EDBA303BE0E888ABE91B989BE9E1BE33D8E74BEBD08459ABA444E0EBE8E77833DAE2310BC9559C23D59FFA13D634D01BDD4B4043EE21AB73C4054763E6FB24D3D4087AD3D7A34513DA2CA383E8090CC3DA524AD3DEF49ECBB88A156BD45DA823D595EC73D0A4317BE3DEA70BD7A0F093E847A70BD69A2693EF4E1343EAB71853D7F07CC3DAFA0EC3DDF7D36BC944EBC3D79DD5C3E5C3AA7BD4F2D433DB80EB4BC7F3E33BD61DC3BBEECFE853EFCB7313ECE30F73C9E0D85BE961068BEB3F72DBD85F282BE773903BEC20AE33DC57B89BD3BE608BEEA1F233EAA8F47BDEA120DBD677543BE27F13CBE1B1F083E740EDF3D74901FBEEA8B563D266C2DBE165846BEB76127BE24492B3AE4575ABEE1DEB63D97C292BCE6A0F2BC6C71083D002BCF3C885F033EFFA25CBE4B4770BDB2F5CF3C9087CA3D5C571BBD1B4A01BD3A9E1FBE9FC1133E0F87CDBC88C08FBC2D8B993CF6F80F3E2248403EB0592FBC7267BDBDCFD2403C916D8EBD62AE2ABAFFC12A3DDDBA8F3CB47E0E3D48B0583E6D1D0ABD61F3CE3D67A603BEC52DEF3DBB1A423EEF6B7A3E57833D3D6B1C933D536353BE2075A23D72DD893DECD9913B1090623D0BBCC1BDFAC2B3BD2007753E9386B9BD38C3D03DF590243E1810EDBD0B5C5B3E2F833F3DCD1129BC05AA683ECE41CDBDEE20F03C9D7CA1BD2941A23C698BE5BCDDB1FF3D7AB9F93DE62A103BCEF9D4BC111BB2BD15933B3D5D916EBC2B718EBD88B21BBD2E4B8DBDC7820DBD43DB21BEF32AB7BD45CCC0BD8AC7EB3C1E23663E16C668BD0C5AB9BDB10424BDC26D103DEAF97CBDB5F42FBEF26FF43D4B94C3BD61018EBDB0F5F43D7AE6363E4BD011BE3E5C65BEC7821F3E4BEA2A3EC401003E826B38BE7740FA3DF39312BE9BC2DBBD8FEEACBD02F102BEED89573D9982043EE99A573EFBA5A1BD12F0223EAF48453C3E7B00BE0B0C9BBDBB58BABD28D30A3E39FFF7BD0CA4F1BDDB091DBE51FEA3BD1AE66239111A6F3D8C746FBEF2F3043E3320643EB2545D3D54761ABEB7E2BABDE2270CBEE3C6A4BD476612BE8F56CD3DCE32A2BC46050A3E877E5C3EC4330F3EE6AA813E91E437BD7745A8BD517E2FBD5C419A3C2BEA693B822DAE3C0F5918BE8AC413BE374FFB3CEE9F79BE608F4ABEA176E23DA7879CBCCC46FDBC7CEB2EBE95D7103E84848BBD69E4563DA8BB193CCAEACBBD844BD63D7F5B83BE73F9173E7BA883BD088280BD5D5855BE88036A3E2A018DBDA05AB1BD9F930FBED3167FBE0E514E3C833AF53DEB403EBC4348E5BCD9242D3B3446923D7B5643BED47556BC29BDE13D0027B03CAC6443BE835EB63D1E6286BDF9D7493D1C1FC9BCE45977BEAB1FB83D253276BD999296BD7F8A3B3DB19CBCBD0D52223B5B08A33D987535BDB760363DA9B2C7BDE9B88B3DC998B43D39AE0D3D12AF9E3CE976013EE0EE293DE2A8ACBD25A03BBEFB5B34BE0677063D1F8936BE8C8B883D55CA1E3EFFFFD9BD2A750DBE75C7A7BD4544993D59E101BE1950D2BD1A532BBEEB6033BECE169B3CFFDFD83DC117F13B0AAE66BC683F8E3D5A5D013E52E8063EC8AB2CBD7967AE3DA831BF3B9A62C0BD23507EBDFF9A023E7407DABCF6D8A13B610289BDBD33DABD34070E3EE1A1003B69E0043D38E507BEF5B112BE19E5FF3D62B882BDC443B3BD9A764BBE7D888CBD2C89E3BDD17D9F3D98EC1BBD615454BEBE06B0BB872B893D42EA45BE5AF9E0BCAA1385BEAAB2C43D5938C7BD3C01FCBC4E9F9B3DE64454BEA7E7963D11C93EBEA98CC1BCD2D0F3BCB1DDBFBD7E2644BCF7E55B3ECBF66A3E12F96C3DBD5ACB3CB1150FBE08DA4E3EF97382BE3749AB3D401421BD48AA3C3CE7313D3DE09E363EDE4245BDC5A1453DCFE711BE74A9153E6EC3913DB75EB03D04BD703DA792A8BC13BD343E216C333E20230CBDDB3CABBC62386EBD69DB66BCEE6B82BDE215EF3DD24709BEAB6335BEE1BBE13C2A02663D205148BEBE44E43DF6A56E3E26E8883EE62D413EB4DDFF3D9FD9853D4C48BBBDD4FF233C121A2FBE7CB127BD30A398BC3142783E730BBCBDB2DD1C3E4B3D11BE6E0479BCD669C5BC2676DC3D4375653D500D08BE228450BE7793103D7B342E3E6978BE3DE8CBA7BC81F674BEA7BB053E619F053E47A66B3C39C3AE3C1EEEEFBDFB03EDBBC70FDFBDCB3721BD66A6B2BD50BBF039EE45723E3670BCBC1165D7BD6AA8893EF1A51A3E7741AABDB8F722BE65CE6FBBC052033E502C3BBB4E5BFF3DE5B189BD428B773DB471C23DE2061ABD277B19BE88E0673D069E25BDE0EFDDBC5D5C63BE806575BE06D4ADBD4A5E803E9A8F1B3DF442C93D472735BC665E86BED6F4853D78B1933C0B562EBDC5275F3E5EE87ABEA3CF83BDE35F77BD8636663D1F6935BD693AE5BD140C1A3DDF781CBEF389E8BD745FCA3D5FD7E6BD8D1F29BD59AF59BD90C6653DEDFDCABD7EFFA43DC74CF03D0EADAB3DE163F43C7CBAA43D4EF4A2BD6648A53DD8B545BD5A45443DC1F4E53C5F90903DC90E15BE195AAB3D443A8ABDDB9127BC0EF2CFBD52D6FFBDB3D45ABE853BF83D480D893D0D16603C4B18C13DE88B1F3EA47E75BD5FB3193E6CE7E73B13EB5F3C1DE9CE3D79A9D2BD57B80CBE72E5A73DB9A2F1BD2C1695BB89A0E4BDE7C02E3DF60E3B3E9D6F71BC29C7403EBE8D4ABECED022BE1F0284BE0A3FF4BCCE50273EE11A5A3D27E160BB7FF381BCDC9210BD65AA723DD8BBACBD5FEE323BB0EC7E3DCC6A823E80620DBEC53C12BDBB4F703EF592433E8E70ABBD50B8A93DBBBA8ABE545984BE0D130C3D336F8EBD29E0DEBDB55BA53D213D21BE5096FF3D6F00A23D47AE78BD103FEDBDBBC10A3E66164FBE68D4E0BD5B4060BEFE030CBEDC7AA1BDF1CB9BBDC93ADE3DD0EA193D37D3FCBD066EF3BD84A2DA3B9D00BF3DA61F1EBD8017D83D3C509EBCD7A751BD367B1CBE350E36BD053C733E58BA863E84CFB3BDC8B2453EBAD5083E54DAC3BD569033BE0A74013A6F97603EF89C013E1A0DCABD2948C6BDBCDDA23D2E0A29BDB5506B3D83DB00BE8A056EBD89B00DBE7AEA8A3E789AFB3C298BD9BDF88C0FBEC5F118BEDE1BCEBDD40C8CBDE50CB8BC016500BDBDA8F33CA3C5E3BDA0ACDB3D52A6F4B842CC0B3E3A9D263EDEE94F3E82AE8EBDCDAEA73DCB8C383E00411EBAB879F13C749891BD8F162BBDCDFF8CBDE3CB59BE141CAB3D4CB5553D8B13D33BC6FCCF3D412C293E00027C3EB93182BD9C7E17BD5602AC3DBCE3973D7F8F07BEBD2D173DC9FE87BC70630F3E46422A3B0169283E47EDDD399C059BBC362E04BD4A7025BDEB49D33D383FD63D54BCCBBD4AD2FB3DD79092BD027018BE1048ABBD79E9B33D821ADEBD451D1CBECBA6C5BDF7F059BDA53D243EE3872A3EEAFFA63D77AF8CBD956C0A3EE58744BD7BC907BED9703E3D0767D73D7568AC3D773702BE2970BA3DD1D0ECBD354A433C34317ABE05EABA3D9162653E4C1316BEBCE121BEA2C90CBEAB87363EEAE8B3BD6649343C74EA8F3D671E1CBEE009A7BDF3CBABBDB89E64BDF156D3BC76D6DD3D688DE13DCE2710BED48C2BBE6FBD2C3E75F3CABD0036DFBD899D96BC250703BEE1F3993DADA602BEA7B1FCBC553821BEE21344BE734D3DBE5D0F903DF5373EBD232BF73DBD4DA73D0F027BBD51175ABE8E3C0A3E856A6F3CB5DECC3D04EE883ECA3A903C96E501BE52A2243E2BE53D3E5FCA2C3E8CA6F53D7DEF1CBE523A533EC4A78BBE52B4953D89118B3DA2C3F23D8B7ACA3D0226593D0AFE89BDB3EF95BD7492853D6101E6BCA9CA823DC17D15BD28C834BE6F5B163D02012F3DFD0D7D3D657AC83CBF8A683E84E2FB3DB0084EBD638C393C19E5713E04BA583D084BA4BBC92BFABDFD79413D8CAD22BEA58FA93D0366E4BCE5E6C93CE971203E16365E3DD6FE9D3D2C80DF3D3E4B7FBEC58193BD86DBDABD25BB30BE7F5684BDD05F8A3C7072EBBC768A5A3D56D1DEBD3662FEBDDC85D2BD36DA433EB1CC8E3D75BE373D3DC593BB374100BDF7C5B23C9C2C963D614EAF3D217508BEE29941BED82710BE44B2EF3D8424823CEE720D3DA719173E6170553E04CC87BEDEBCC1BDCE1186BD6FDCB3BB50E9283E725D21BEAD619E3C3EE3F9BDE61D1ABD6E13083E2860B63D58C3BDBDED2F393E6211133D776D79BD513C02BD064496BD6893783D231924BEA200B03D7F27723E822C83BC074217BE4D59813D69857EBE11FFF7BD9B3C103E170A533D5D7D17BCC65E79BEDD722C3E"> : tensor<10x128xf32> attributes {sym_visibility = "private"}
  flow.variable @"__iree_flow___sm_node26__model.layer-3.bias" dense<0.000000e+00> : tensor<128xf32> attributes {sym_visibility = "private"}
  flow.variable @"__iree_flow___sm_node35__model.layer-5.kernel" dense<"0x454A1DBEB9D7A9BCA1DA2C3D0129923C3B8758BE1C95373E472D853D0FFB583D960311BDD1CBDB3DC0D33F3D0159DB3C06B7CDBD17B07CBB483CADBA8F609D3C2B307FBDD9A566BE62A2D2BDF4E8993C4CBEC8BD2798363E8EC70DBD61B4A53D1478C03CCF02E63D02DC123C093804BE6DB881BE27C1A4BDB5DD63BC4D54043E1E8126BD5DD4CABB228D68BC93B875BEBA3FFB3BB7E9EBBC0973123EF6ADF83D2EA8EABCF8FB94BD4DE99F3DD0082F3C2A8A29BD7DF05E3DDFB957BE5413103EE5420ABE1A0A903C3561973D9A1E203EDFCA683E54385DBE2A1E6E3E85DD193DF6C072BDA1AE0ABB9B7831BEFB095EBE208303BEFC4B153E26B9163E3E974BBEA0910C3EA6FE1D3E1C2EA03B138E2BBE71FEF2BD7EFA23BD2DC410BE5CDC093E356B493D1A6259BA2B299BBDAED4A3BD3BA8103EBAE1AEBC931B74BBF0BEECBC246691BC2973A7BDFB6288BE94EE773EAC4B56BE3BD6173C8EAE24BE17B6193D421E83BD47DCA7BC04E6AD3DA3DE6CBE9438A23D92F88E3B1DF500BDDBC4133D2399263E6064223EAEB2BE3DD30635BE602B4A3CDB7B163B30D33D3E8AF47DBEDD7B84BEA822C8BD99B291BD0CE934BD0055CBBD2C2965BD06D5403C6C32733C00F426BE24B110BED466C4BCDDD303BE49A7303EA24A453EAB2C243D3D07A63C26679D3C534A4F3E4D3CFFBD847586BD7C40273EA59541BE43E9413B998659BEFA898F3C79E0293E28715C3E0C7E8C3DC07D1B3DCFABA3BD507DFBBD791E2DBE1476EC3C12D4863E36664A3E2C97E33D00935E3EB1E8933DF0D7D8BD2F8E5DBE4FFDE93D3971033EDBB002BD9F9D2F3E83F31DBD1513FCBC0214FBBD388E56BD8CC2E1BC3C16873DB929003EA892963DE6EBCABDEBC2FABDEF723A3C849A0ABE0B47523CE920643D960A5E3D21658BBD729F3ABC4D9DAE3D9D40C93CBF5C013EFE5CB03DA44DEA3C052C893DC9CEDF3C28AF813C8A9E95BD453566BDBE0AFCBDF2BC80BCC5A2D73C43E0D53DAF50EE3C0AFA0ABEAEAA493EB4AF563E0E6B1ABE68C7863EAB6C38BE41EE933D94F2E3BDF42E49BCAC2B1FBB3E142F3C8BF2453E208E363DAAC5053D2024F4BC3E0324BEF0D9E53DCF1F223D518013BEEEEDDBBDA2B6E93DE8CB4D3ECFBD9D3C293F04BC054B0A3C2336A6BC59F631BEBCB61D3E28862EBEAA5E233EAE7FBFBC6722123D42D2B7BC9F5E21BE1E395CBEC9FF923C4775B33DE44D903C5D423CBEFCD67A3D56563B3DAA29263E38D6A7BCA7D007BCBA398B3DFC3FADBD0B77943D482E8E3D3066BEBCFE777F3E6D56FCBDA80DE43C4E8CAEBDE731733DBF283EBD9476793EA1E6943CCBBFC23C028E2D3EA4CC12BD9A5D9FBD633C32BE5C22873DE07AE1BDB215A33D8F00843DB61247BDB5EFD73D182D2D3C7B783EBEDFFF7EBE17E81C3E324A5ABE96AC8BBE39AE45BCB3D50DBD59BD863EBDC76DBDA284703E05AAB33D413F593C5057103D179021BE7646913D55C7633D1E1D8CBD581C48BE75C8A63DFF78E43DBCF17E3EC77D333C140D763D8CA5573E63B1033E8656403EC383803B8092C63D03F93F3E9332643E631D7FBD7F0E34BC9C1FB63D4079FF3DB5042ABD0FD9E0BD815248BD527FB63D83478A3DAF748EBDAE175D3D0EA547BB1560DB3DB2C5AA3B5050143CDE58983B9548DF3D765E283E2FBE863E2DE3753C0D47ED3DA3152BBDC7C0763C8AB74B3E3151A33D9AEDC03D7C68023C87906CBEF4110E3EB946563D1A81F33D0CF7AA3D798A883EB555C53D041585BE64A243BE867C3CBD5055F1BAAB620BBE0007A6BDA9E53D3E68BAEEBD5857CDBD9265993C8C5968BD937919BEE07EF43BDE9D4BBDA0A6E1BC449A483E94B789BE28A2FBBAD07858BE2005A13C166AAB3D9051F1BC62A384BD53212A3EDB7618BE61E61A3D2B6E10BDF53BB5BD2608D6BD233A98BD55C3E33D2D1785BC75CFCA3B83B66D3DAE18BCBDF69F3D3D8FDC1D3E6BDE30BE3924813D109308BD3A0ED73D9470363E845A20BECD1E293DB078A63DE07B1A3EFA750DBE6EE4173D58C6B5BCA1CCCABCCA2D963D4FF502390D2BF33BA018123EACA3C93DEA2F0D3D3391B63D79FB043E2BA7D3BDD7E23B3D943073BD9046B23B58C9ED3D56641EBECA6D02BDC3C287BC0CCF20BEAEC3533EF0F8C03DB0E220BEDF80CB3D96250EBDDAB4CEBDFB80283ECC3C7ABDF88946BEC9E3973CA4AC3A3EFCD4AFBD14829BBDFE58D23CF0E3BBBC5BE3C4BD34464ABD5023EB3D89843B3CA3DC23BC97E02DBE1D8A6BBD3CDF17BEE79EA63D18E95FBED4888EBD5CC0A43D9C0301BE9BC0E53DEBCBC03C744ED53D3FC581BDA9A791BC2B30CCBDD1278EBD6A13BA3D74C8103E35632CBD72ED5C3D5EB4463DD4998C3D43EE40BE360D36BE0B57743B987E6BBE02C265BD70E9603D48507BBE8DE5193D2A0042BE4AF529BEAC06D7BD792B1C3EAF45FE3C17BF52BE2976BC3D9904893EBD041C3EA111F13C42C5B23A873B68BC4A276E3D767734BD05211ABDF59638BC97BF57BEF8705BBE5494E0BDF9FB29BDC6F8C53D880E03BEA3E3CCBD623186BDA31D76BE9235A83D3C85183E0A9802BEF29654BD2386863D0F92AD3DF875413EE030CBBD7A10543ECFBF113EDF580C3D6F193E3D158EC3BA23F2733ED406BB3D39E7CF3D763C4C3D306D4CBC2537A53D2B08C0BDEB90FFBD7F098CBD0D73113DD07715BECD3FEBBDAEF2033D409633BEC4BD053D99C4223D99A58B3EFA3F38BC1539273DAED7513DE5842DBEAF8E26BD770724BD9D8FBC3CD973623EB739733CC8D11B3E77CDECBC3F5E563C08859EBD8B7FA8BD75CA333EB0752C3E862C1D3E9DC669BD5F85293D7692E73DACE0C1BD091432BE48B6C63C17AB1B3D58C70C3D69EA69BCC1A380BD1AFA003EE17FB73D60EAC9BD748AF23DC4DC8F3DC4060EBDD89AC0BD25C740BD53BA47BEC68B86BEA150B7BC40064ABC756A843DE1862E3E412D85BDA76A583D9C0155BE2DF7573DCFC88E3C6FC4053DD79229BCAB6D6F3E3EC91D3E7411DD3DFB7B69BEFDA1DEBCEA1AB7BDADA5FCBD3D27B8BD7D5716BD93D8C13D397BC9BCB0574F3D6EE83E3E1385543D981BCDBD64F5463E69894FBE672087BE314A7CBDCD0C893DB2B1FBBCFE25443D852A1D3EB0E371BDE49CC0BC05707EBC5762FC3D198601BE049B413C59A9BB3DBCB10ABD7AC250BE82931B3E72B249BDCA3402BE3A7536BE497DF2BD81E240BEE2BA4EBC627A85BC5E1E08BE4CAE6EBE47BA82BE4FB1093ED300973D04B52F3CCEC174BE83F27EBD71250D3E5DAA86BC4DC070BE1D4713BB02D114BE98731D3E451E013E38D4CB3DADF407BED2251C3EA0AD4D3E3227E43B6169F23CD88C2F3C2DB6123E4DA8023DC3595EBE3C96E73CD49E2ABE51BDD13D6EF548BD31F0ADBCAE74503EC70BBDBD3E4E913D9854853CC1ADDABCE5842FBEA359693E9A27C13D9D017BBC2DA20E3D5542A7BD61F372BDF59E12BED6E33B3DF47A7C3D37FFFF3C35FD0D3D9072DE3C158E51BE2674CE3D41BAC8BB21A6D4BDDB0BB0BD2DA664BC931C78BDFC4B63BE856A14BEF40D1D3EDCA454BC1079C3BCF31107BB9E3CDD3ADECA333E24E985BD481943BE1A3026BED687123E64A991BDCC02DF3DECF7F2BD6781353C5BC8A63D098B803E1768E53CD3F4813D5E2D883D84E6B9BD567B133E62ABC73DF67684BD48B59D3C6FDA073D4AD325BEED096D3E669854BE3BE4EF3D0CBAB1BD49D6D6BC0729AEBD369170BE30AF80BDB6CD903C2009E2BD5A199D3C70DD09BEB50A743EDA0B03BE6D098F3DE96C2F3E156D1C3D77038BBDEFB3E3BC1B456D3E3FB07A3DAC8FF13D774FDB3C4E7B2EBC6F5A2DBC0CB3A2BC493C763EC6CF09BD92E50A3EA021503EC33122BD8A7C41BDF5DC7FBE51F388BE2BA9C03D00B42E3EC4BA64BDA37797BDCAE638BD9C7D61BDBD4727BD9A5303BEBC9828BE4E408EBD745B5FBE9A4753BEA82697BDE370AEBDBA8A963D618E65BD3CBB693E41A018BEFA74373E8EB91ABE13BA5ABBB65B34BCD1CE113E6D28F3BD075E603C765DF3BCF7FB45BE47FB38BECF31503D92D2173E430A653E6F0367BDA2322BBD5D2AD3BC8AB2E53CF26847BED5710DBE1D698DBDBF720EBE26DE103EA905A53DA7C2993C798E153DC38B383D8DA010BE91925C3DD59E87BD3ABA48BE93BD2B3E56F8DB3D0BF9883D0FC937BD4945723D0367BA3C2A7A4ABEB3E025BEB83C703EA43AC13DD09520BE51057F3C2C6FB4BD91F2323D4C14C73C6CED4D3EEBCBC2BD4AA000BE96EF693B52999F3B2DB114BEEA798DBD8CDE07BEAA11083D111ECDBB8F15CE3D0A6B60BEF5A8D03C34D3443E9E5374BD627E543E61E523BEF18B91BDE7FAF7BCE2F2B43DA9EB09BE041D33BEEA1A9BBDFFAA8C3D375F8DBCFBC4803E2DA216BEDA74B1BCE6A0CDBC4592BA3DA1E7EC3DF1A0B3BC965CB4BD5AB90C3EF31E4ABE41DE24BE4DA8F93D29506D3DA2249CBB6DDF443D228AD33DA7E92FBEDFE091BB1720E23B8A43B03DA5312C3D17EB2BBEE347E73D6E81593D857A4ABD140966BED5D35DBDF550B2BD841894BD389D80BD1C962F3EAC79033E38D91F3E600829BE69BAA93D13DDB5BD5C4135BD541E3E3B38BA92BD7D239F3C03B8643EE8012ABC0E10463DF2D30A3E8A5704BD2021463E6CD7B9BD32F5C839F577F73D1A3520BECCE2893A3549C9BD1209703DBFFE33BEDAD1BFBDCB15483D019C213EF62039BDC1304FBA89DCEEBD10F0373DE9800DBD1C3CC23DC6766D3EF35A353DA22B3A3E5556FF3DF9F54B3D2CFBBC3D8E8516BD38A52EBDDE44613ED459FCBDEDB66E3D6A48B1BD5A942CBD76BB503E4ADCA1BD1077BBBDB2F9243EB000883C647B883E0200ABBCED75613ECE4A9F3C70292A3D53E2963C90DB58BEE50B8FBD325E83BE0EEA00BE11EA033E08073DBEC859A83D855A14BE1B6EC43CE3BBDC3CA1D632BE46731A3C5A651F3EF086BD3D65E90A3EFCFE1B3CA5194EBD243BEABD998FF93D026A813EF1F55B3D4BD5EFBDA5CABBBB1AC06E3EC78E823CDD12433E7966EC3DF53200BD83DEF13C46CE093E945F583EA699FCBDF71D78BE251D8ABDDE846FBD1298F6BD3A5013BD3690B1BDCEC514BE4DBB833EA4894CBEC257EC3DD7196FBEBBFC683E237F2ABEB482E1BDB2F270BD3CBE8D3D594E8ABE91FBE5BD3E2408BE5A460D3D805C01BE2A74283C641C663CE0C5AA3C58645CBEB8822BBE9878FB3D6020513EADEF763E668558BE9AD91CBD56F120BE3D4860BE9CD123BD60CFE5BCADF9803E49756B3D4A38B43C30A371BEE6260D3EC2844F3C93DE49BBA37E59BEC30095BDF5302DBED02378BC6005D93D769A13BE322CD43D670E0B3E090FB13DDA06903DCCAE87BD01D013BE36792EBE691EE7BD3175AA3D07B1273E75EC03BE9881BD3D7EAF44BD918BEDBDFAC99ABDB56B73BE7B0F0FBDA38E3B3DF6C529BEFBD7753E0F14A03CEA251B3EC3AF9BBD30E386BD3EE0873DE7EFE5BDDC219BBDC671CDBD39B3EE3D32A155BD65D5B23DABF7723DF69C86BDE7053EBE0C32CC3DEA30C63C12C3513ED9D0033E322E78BD68D6ABBDC95EED3D2A9469BEE4D748BEEC25183C8245F93DDBD689BB64C13FBEED442ABD65DC823C6560A4BD148A58BDD8781CBDA66AE5BD09A627BD79500E3E341BDA3DF2C0A83C44370A3C3737ECBDB3E554BCC2354DBE6FB8CA3D432E92BDA87FC4BD460CED3A3676013E00FA01BE42B334BD754F963D0969973DCF384C3E7273873D0922953D8B78E7BDB35E173D11A661BED3DB61BE8F1E27BEEA1185BDF9DA143E264FA53C0AFBBE3C6B90203EAFCE8EBD73E4073E92320BBDD20422BCF550163D1C67C23D204745BDE28025BD093A0E3DE9244CBD6543E83D6A0CE33C82A1EB3D10D4463E1B2D253E2D555B3D6EA3D03CECDCB4BDDB99B6BD0D617E3C86FCA3BCE64C21BECCEF4CBC78E9293DF8BA553EDB8D383E94D256BEAF7B32BDECC742BE412F2E3DC6B881BC35282E3E235FD4BDBE678EBCF3E8D83D62AE4EBE37A5A0BCABED1CBEECA8FDBCA75E12BEFCE2863D780A823E8E05D1BC803613BEE789173D117413BC2DF3C6BD1E040A3D26CFAF3C750B1FBDC4866D3D793050BD7817E2BDE931223E96C4313C40E1A9BCFA12A83D533C13BE19D101BD35F7AEBD71990CBEE60402BE02E1923D788826BD856D563C85DCB03CE845013E5550333D214FAABDCA5E353E9C838CBD697EF73D55FD48BD97BCC9BD7AF53ABEEDCAA4BD936D12BEC1532ABEA192A93CE307A6BBCDFCC63D94900A3E34AA4DBDE89918BE3371E8BC999CE5BDD8D9C03C5B7C60BCBCF9D73D49FF9CBDC7C9D43B17DEB23D7CFC123E889786BC12E9EF38AAE9523E12DB363E52FA23BE6A068ABDF6655D3DEF9E87BD9FB910BD3716503E81EAB73C8B78DFBD4B4A93BD2EEDC63DD18AF6BD4BF3B33D881985BDA0C6EBBDD2E8713D51E1AEBDACF555BDF6D2863D3D22D83DBF0C90BDB232CE3D3E7C113DA0A4943D38528B3D8635C93D13B5E13D2B407EBCC67D26BD486A11BBF982023E3116303DC95B2D3D4D90DF3BE1ADF5BDBA5559BC27E50D3EA0A7B93D82A0443EBDB2D5BD47BE663CFB1D0ABE60ED923D38822DBE8A53833DF17107BEFA435B3E5A67E63DEBD0F4BD3AA9C3BCB75753BEA9A9AF3DD736903D44363CBEE50931BDE7658C3D25A13D3DAB019BBA1B402CBD0390B8BD5ED1063E62CC443D40F14DBD7890B0BD17EC853E1DDE47BECD57453E50A76F3E1F22333B2105FF3D06A9DF3D3423FE3DDBFBADBD8CCD3BBE50770A3DA3DB403E92970A3E49D1033D0C53923B75FC0D3E5CF70E3EE34FB13D8B307E3EE662D03D42CCD6BDC86921BD255A763EB1BC44BE7C3F3EBEC999FD3D69E10E3D670410BD69663CBE19B1B73DC09A143EF331213EB724643D0411833BE9E06A3E07799F3D156CD5BD7621A33B5AD04B3D2FA6B9BAEFA126BD8B0C32BD3AE9203B7FCD8BBD1A25063DEB3B72BDA9552E3CA9F981BE6C9321BD55481F3EFF0BF1BD331A823DDB3E1FBEDCFEF5BC91F3A53B4BCC6ABD4969913D97722B3EA156183DBCB2B1BD02F23C3E5592DD3DF582E33DCE50D93DC93736BCC26574BD988EAD3D4A0EE83B2E64B5BD49491FBE46E4243E3C43CFBDD1F83F3E91AB0DBEBD8FA0BC63C4BF3D019A403C31FC17BE8F17DF3D7775313DB0775B3DD7EAC8BDD6264D3D6919F1BC1B770C3D6D4EF13DFAD94A3CE13053BECDB4D1BD6ADD5DBEB041D53D0F5C85BD48249E3D"> : tensor<128x10xf32> attributes {sym_visibility = "private"}
  flow.variable @"__iree_flow___sm_node36__model.layer-5.bias" dense<0.000000e+00> : tensor<10xf32> attributes {sym_visibility = "private"}
  func @predict(%arg0: tensor<1x28x28x1xf32> {tf._user_specified_name = "inputs"}) -> tensor<1x10xf32> attributes {iree.module.export, iree.reflection = {abi = "sip", abiv = 1 : i32, sip = "I8!S5!k0_0R3!_0"}, tf._construction_context = "kEagerRuntime", tf._input_shapes = [#tf.shape<1x28x28x1>, #tf.shape<>, #tf.shape<>, #tf.shape<>, #tf.shape<>, #tf.shape<>, #tf.shape<>], tf.signature.is_stateful} {
    %0 = flow.variable.address @"__iree_flow___sm_node19__model.layer-2.kernel" : !iree.ptr<tensor<784x10xf32>>
    %1 = flow.variable.address @"__iree_flow___sm_node20__model.layer-2.bias" : !iree.ptr<tensor<10xf32>>
    %2 = flow.variable.address @"__iree_flow___sm_node25__model.layer-3.kernel" : !iree.ptr<tensor<10x128xf32>>
    %3 = flow.variable.address @"__iree_flow___sm_node26__model.layer-3.bias" : !iree.ptr<tensor<128xf32>>
    %4 = flow.variable.address @"__iree_flow___sm_node35__model.layer-5.kernel" : !iree.ptr<tensor<128x10xf32>>
    %5 = flow.variable.address @"__iree_flow___sm_node36__model.layer-5.bias" : !iree.ptr<tensor<10xf32>>
    %6 = mhlo.constant dense<0.000000e+00> : tensor<1x128xf32>
    %7 = mhlo.constant dense<0xFF800000> : tensor<f32>
    %8 = mhlo.constant dense<0.000000e+00> : tensor<f32>
    %9 = "mhlo.reshape"(%arg0) : (tensor<1x28x28x1xf32>) -> tensor<1x784xf32>
    %10 = flow.variable.load.indirect %3 : !iree.ptr<tensor<128xf32>> -> tensor<128xf32>
    %11 = flow.variable.load.indirect %2 : !iree.ptr<tensor<10x128xf32>> -> tensor<10x128xf32>
    %12 = flow.variable.load.indirect %5 : !iree.ptr<tensor<10xf32>> -> tensor<10xf32>
    %13 = flow.variable.load.indirect %4 : !iree.ptr<tensor<128x10xf32>> -> tensor<128x10xf32>
    %14 = flow.variable.load.indirect %1 : !iree.ptr<tensor<10xf32>> -> tensor<10xf32>
    %15 = flow.variable.load.indirect %0 : !iree.ptr<tensor<784x10xf32>> -> tensor<784x10xf32>
    %16 = "mhlo.dot"(%9, %15) : (tensor<1x784xf32>, tensor<784x10xf32>) -> tensor<1x10xf32>
    %17 = "mhlo.broadcast_in_dim"(%14) {broadcast_dimensions = dense<1> : tensor<1xi64>} : (tensor<10xf32>) -> tensor<1x10xf32>
    %18 = mhlo.add %16, %17 : tensor<1x10xf32>
    %19 = "mhlo.dot"(%18, %11) : (tensor<1x10xf32>, tensor<10x128xf32>) -> tensor<1x128xf32>
    %20 = "mhlo.broadcast_in_dim"(%10) {broadcast_dimensions = dense<1> : tensor<1xi64>} : (tensor<128xf32>) -> tensor<1x128xf32>
    %21 = mhlo.add %19, %20 : tensor<1x128xf32>
    %22 = mhlo.maximum %21, %6 : tensor<1x128xf32>
    %23 = "mhlo.dot"(%22, %13) : (tensor<1x128xf32>, tensor<128x10xf32>) -> tensor<1x10xf32>
    %24 = "mhlo.broadcast_in_dim"(%12) {broadcast_dimensions = dense<1> : tensor<1xi64>} : (tensor<10xf32>) -> tensor<1x10xf32>
    %25 = mhlo.add %23, %24 : tensor<1x10xf32>
    %26 = "mhlo.reduce"(%25, %7) ( {
    ^bb0(%arg1: tensor<f32>, %arg2: tensor<f32>):  // no predecessors
      %33 = mhlo.maximum %arg1, %arg2 : tensor<f32>
      "mhlo.return"(%33) : (tensor<f32>) -> ()
    }) {dimensions = dense<1> : tensor<1xi64>} : (tensor<1x10xf32>, tensor<f32>) -> tensor<1xf32>
    %27 = "mhlo.broadcast_in_dim"(%26) {broadcast_dimensions = dense<0> : tensor<1xi64>} : (tensor<1xf32>) -> tensor<1x10xf32>
    %28 = mhlo.subtract %25, %27 : tensor<1x10xf32>
    %29 = "mhlo.exponential"(%28) : (tensor<1x10xf32>) -> tensor<1x10xf32>
    %30 = "mhlo.reduce"(%29, %8) ( {
    ^bb0(%arg1: tensor<f32>, %arg2: tensor<f32>):  // no predecessors
      %33 = mhlo.add %arg1, %arg2 : tensor<f32>
      "mhlo.return"(%33) : (tensor<f32>) -> ()
    }) {dimensions = dense<1> : tensor<1xi64>} : (tensor<1x10xf32>, tensor<f32>) -> tensor<1xf32>
    %31 = "mhlo.broadcast_in_dim"(%30) {broadcast_dimensions = dense<0> : tensor<1xi64>} : (tensor<1xf32>) -> tensor<1x10xf32>
    %32 = mhlo.divide %29, %31 : tensor<1x10xf32>
    return %32 : tensor<1x10xf32>
  }
}

